<s>
<pad>
</s>
<unk>
▁the
.
,
▁to
▁and
▁of
▁a
s
▁in
▁.
▁I
▁that
▁,
▁for
▁is
▁was
▁on
’
-
▁it
▁with
▁The
▁'
'
▁as
▁at
▁"
t
▁be
▁he
▁have
▁from
▁by
▁are
▁you
▁his
▁“
▁this
▁said
▁not
▁has
▁(
▁an
▁but
▁had
▁we
▁her
▁they
▁will
▁my
▁or
▁were
▁their
▁up
▁about
▁out
▁who
▁one
▁all
▁been
▁can
▁she
▁more
:
)
▁-
▁would
▁It
▁so
▁which
▁me
▁He
▁when
▁time
▁also
▁just
▁like
m
▁there
▁what
▁after
▁him
▁into
▁In
▁our
▁first
▁do
▁over
▁them
▁people
▁A
▁some
▁other
▁two
▁if
▁its
▁than
▁get
▁your
▁could
▁year
▁back
▁no
.”
▁new
d
re
,”
▁But
▁only
"
▁We
▁last
▁now
▁!
”
▁years
▁because
▁how
▁then
▁know
ing
▁before
▁This
▁And
▁She
?
▁where
▁way
▁being
▁down
▁make
▁going
▁made
▁day
▁even
▁—
▁any
▁see
S
▁through
▁most
▁much
▁go
▁off
▁don
▁did
▁well
ve
▁very
▁think
▁while
I
▁us
▁?
▁work
▁good
▁still
▁around
▁three
▁many
▁those
▁really
▁home
;
ed
▁They
▁take
▁against
▁right
▁these
▁)
▁got
▁want
a
▁during
▁U
▁say
/
▁didn
ll
▁told
▁–
▁should
,"
▁may
▁
▁So
▁since
▁such
▁Trump
▁little
▁long
▁here
▁life
."
▁too
▁need
▁You
▁next
▁week
▁part
e
▁between
▁game
▁That
▁says
th
▁team
▁same
▁things
▁company
▁:
▁both
▁world
▁There
▁another
▁never
▁If
▁As
▁come
▁New
▁few
▁something
▁second
y
▁own
▁help
▁went
▁family
▁use
er
▁found
▁under
▁government
▁end
▁state
▁used
▁am
▁left
▁man
▁million
▁season
▁took
▁place
▁again
▁came
▁high
▁2
▁night
▁put
▁lot
▁every
▁including
The
▁each
▁best
▁away
▁school
▁look
ly
▁four
▁When
▁1
▁set
▁For
▁called
▁3
year
▁days
▁10
▁great
▁always
▁find
▁better
▁until
▁love
▁later
in
▁show
▁percent
▁per
▁police
),
▁without
▁country
▁thing
▁On
▁might
▁play
▁top
▁won
▁started
▁group
▁big
▁public
▁number
▁market
▁different
▁head
▁thought
▁children
▁feel
▁though
▁‘
▁five
We
▁After
▁able
).
▁My
▁No
▁today
▁point
▁de
▁4
n
▁already
i
▁having
▁old
▁report
▁city
▁does
▁enough
▁United
▁start
▁5
▁business
▁What
▁past
▁asked
▁house
▁women
!
▁give
▁support
▁keep
▁far
▁case
▁run
▁getting
▁sure
▁President
o
▁side
▁At
▁early
▁making
▁wanted
▁doing
▁One
▁why
▁months
▁ever
▁former
▁working
▁money
▁hard
▁least
old
▁done
▁water
▁several
▁seen
▁Friday
A
▁according
▁information
▁times
▁change
▁story
▁month
▁across
▁American
▁small
▁car
▁All
▁full
▁room
▁together
▁Mr
▁area
▁face
▁system
▁looking
▁doesn
▁half
▁wasn
▁let
▁along
▁must
▁name
▁open
▁local
▁call
▁news
▁trying
▁free
▁person
▁morning
▁once
▁State
It
▁&
▁ago
▁third
▁Monday
▁...
▁power
▁His
▁S
▁less
▁US
▁bit
▁line
▁To
▁course
▁saw
▁become
▁Tuesday
▁six
▁points
▁Thursday
▁kind
▁win
▁added
▁men
com
▁actually
▁yet
▁known
to
▁Wednesday
▁hand
▁North
—
▁law
▁anything
▁book
▁move
r
▁behind
▁deal
▁real
▁20
▁fact
▁care
es
▁However
▁May
▁tell
▁important
▁using
▁coming
▁games
▁someone
▁given
▁often
▁close
▁president
▁taken
▁members
▁6
C
▁House
▁woman
▁almost
▁hit
▁job
▁post
▁taking
▁[
▁felt
▁Sunday
▁York
▁front
▁believe
▁party
▁live
▁community
▁Saturday
▁South
▁friends
▁media
▁hours
▁quarter
▁young
▁looked
▁data
▁held
▁order
▁12
▁saying
▁City
▁knew
▁began
▁court
▁With
▁food
▁p
▁others
▁following
▁try
▁While
▁office
▁read
▁health
▁future
▁series
▁John
▁within
▁body
the
▁University
▁due
▁reported
▁everything
▁large
▁minutes
▁service
▁whether
▁States
▁gave
▁mother
▁share
▁National
▁7
▁late
▁lead
▁weeks
▁lost
▁comes
▁kids
▁near
▁8
▁major
▁March
▁plan
]
▁/
▁became
▁B
▁outside
▁couple
▁expected
▁death
▁players
▁final
▁God
▁among
▁political
▁likely
▁30
▁process
▁County
▁re
▁played
▁pretty
▁students
▁Now
▁15
▁social
▁forward
▁nothing
▁needed
▁pay
▁experience
▁recent
▁billion
▁short
▁myself
▁price
▁possible
▁child
▁decided
▁11
▁video
▁stop
▁turned
▁everyone
▁shares
▁idea
▁World
▁2018
▁film
▁bad
▁June
▁stock
▁decision
▁probably
▁Then
▁building
▁released
▁continue
▁himself
on
▁campaign
▁statement
▁whole
man
▁companies
▁China
▁event
▁makes
▁program
▁son
▁means
▁C
▁leave
▁friend
▁meeting
▁research
▁O
▁based
▁available
▁control
▁current
▁D
▁running
▁April
▁single
▁father
▁return
▁history
▁isn
▁low
▁further
▁couldn
▁level
▁talk
▁officials
▁led
▁St
▁;
▁soon
ers
▁9
▁fire
▁announced
▁national
▁July
▁services
▁mind
▁clear
▁black
▁e
▁problem
D
▁security
and
▁growth
▁2017
▁quite
▁record
or
▁worked
▁hope
...
▁eyes
▁project
▁period
▁E
▁inside
▁Police
▁door
▁parents
▁turn
▁playing
▁either
▁include
▁issue
▁mean
▁recently
▁tried
▁January
▁light
▁else
▁special
▁T
▁shot
▁heard
▁age
▁earlier
▁music
▁received
".
▁matter
▁question
▁rest
▁America
an
▁town
▁moment
▁white
▁strong
▁position
▁happened
▁--
▁Washington
▁heart
▁list
en
▁Some
▁phone
▁living
▁wrote
▁however
▁provide
▁industry
▁An
▁role
▁non
▁bring
▁rather
al
▁died
▁News
▁Facebook
▁human
▁reason
▁air
▁career
▁West
▁Department
▁road
▁stay
▁remember
▁i
▁especially
▁election
▁total
▁issues
▁average
▁cost
▁needs
▁happy
▁moved
▁These
▁anyone
▁tax
",
▁military
▁development
▁spent
▁According
▁December
▁November
▁war
▁sent
▁seven
▁goal
▁seems
▁federal
k
▁fun
▁nearly
▁brought
▁longer
▁Not
▁cut
▁policy
up
▁wife
▁White
▁space
▁rights
▁girl
▁How
▁N
▁visit
▁hold
▁attack
▁finally
▁example
▁player
▁words
▁M
▁October
▁field
▁instead
▁killed
▁co
▁online
▁general
▁plans
▁study
▁R
2
▁September
▁result
▁countries
▁ready
▁member
▁P
▁trade
▁husband
▁chance
▁San
▁release
▁action
▁India
▁above
▁Her
▁site
▁key
▁baby
▁16
▁weekend
▁hands
▁director
▁lives
▁quickly
▁summer
▁understand
▁daughter
▁higher
▁increase
▁School
▁financial
▁August
▁cent
▁access
▁meet
▁2016
▁shows
▁main
▁un
▁coach
▁class
▁Well
▁official
▁13
▁eight
▁race
▁involved
g
▁ask
▁Court
▁By
▁Canada
▁ground
▁met
▁14
▁form
▁interest
▁international
▁ahead
▁rate
▁currently
AP
▁staff
▁hear
▁G
▁latest
▁reports
▁similar
▁gone
▁Minister
▁board
▁California
▁published
▁Dr
▁February
▁TV
▁buy
▁club
▁easy
▁fight
▁potential
▁worth
▁David
h
▁18
▁themselves
▁wrong
▁watch
▁continued
▁feeling
▁global
▁true
▁kept
▁sense
T
▁hospital
▁fall
B
▁results
▁break
▁J
▁investigation
▁17
1
P
▁K
▁vote
▁personal
▁performance
▁energy
▁technology
▁League
▁situation
▁thinking
▁nice
▁talking
▁25
▁Twitter
c
▁wouldn
▁training
▁offer
▁*
▁Street
▁maybe
▁fans
▁self
▁store
▁100
▁included
▁walk
▁land
▁James
▁seemed
▁Donald
▁happen
▁goes
▁questions
▁private
▁opened
▁wants
▁50
▁British
▁risk
▁create
▁oil
▁Even
▁below
▁showed
▁Russia
▁bed
▁difficult
▁leader
▁economic
▁areas
▁entire
▁starting
▁previous
▁F
▁Christmas
▁value
▁products
▁allowed
▁loss
▁named
▁drive
▁Center
▁red
▁Park
▁London
▁huge
▁match
▁built
▁round
time
▁ended
▁administration
▁helped
▁relationship
▁states
▁certain
▁whose
▁step
▁pick
▁allow
based
▁website
▁changes
▁Just
▁Do
▁production
▁guy
▁region
K
▁European
▁Michael
▁simply
▁feet
▁itself
▁legal
▁sales
▁giving
▁created
▁hour
▁opportunity
▁attention
▁looks
▁various
▁email
M
▁takes
▁Day
▁sign
▁teams
▁events
▁writing
▁moving
▁groups
▁lower
▁finished
▁followed
▁sometimes
▁stuff
▁alone
▁view
▁leading
z
▁evidence
▁First
▁hair
3
E
▁cause
▁word
▁amount
▁bill
▁immediately
▁Of
▁Inc
▁fell
▁problems
▁focus
▁build
▁test
▁cannot
▁medical
▁chief
▁passed
▁movie
▁fourth
▁check
▁ball
▁reached
▁present
▁towards
G
l
▁date
▁stand
▁star
▁paid
▁impact
▁boy
▁follow
▁Our
▁officer
▁floor
▁seem
▁dead
▁rating
▁ran
▁middle
4
▁UK
▁despite
▁growing
▁original
▁force
▁appeared
▁works
▁brother
?”
▁trip
▁response
▁During
▁additional
▁East
▁pass
▁Here
▁Republican
▁leaders
p
▁Paul
▁although
▁changed
▁War
This
▁learn
▁terms
▁church
▁football
▁Cup
N
▁sold
▁reading
▁officers
▁voice
▁biggest
▁version
▁Russian
▁wait
▁expect
▁usually
▁workers
▁stage
▁Obama
▁college
▁table
▁addition
am
▁Since
▁walked
▁la
able
▁stories
x
R
▁raised
u
▁range
▁title
▁property
▁L
▁scene
▁photo
▁center
▁picture
▁comment
▁stopped
▁ways
▁written
▁families
▁leaving
▁40
▁completely
▁common
▁anti
▁track
▁cases
▁Senate
▁senior
▁Europe
▁safety
▁England
▁significant
▁throughout
▁Group
▁Congress
▁pain
▁dog
▁pre
▁International
▁loved
▁interview
▁girls
▁popular
▁remain
▁complete
▁books
▁Australia
▁born
▁closed
▁Chinese
▁straight
▁scored
▁type
▁address
▁More
▁education
▁account
▁afternoon
He
▁term
▁blood
▁station
▁student
▁gets
▁figure
▁write
▁considered
▁Texas
▁economy
▁returned
▁Or
co
▁character
b
▁reach
▁beginning
▁pressure
▁effort
▁shooting
▁firm
▁sleep
▁customers
▁fine
▁target
▁toward
▁nine
▁From
▁success
▁incident
▁content
▁upon
▁driving
▁served
▁High
▁beautiful
▁Last
▁opening
▁population
▁foreign
▁capital
▁source
▁blog
▁haven
▁includes
▁described
▁24
▁daily
▁deep
▁waiting
▁via
▁provided
▁charge
▁sound
▁fast
▁sort
▁manager
▁mom
▁increased
▁conference
▁remains
▁spend
▁#
▁sexual
▁sister
You
▁H
▁serious
▁seeing
▁answer
▁Don
▁model
▁gas
▁bank
▁song
▁French
▁signed
▁league
▁La
▁practice
▁nation
▁Press
▁evening
▁19
▁perfect
▁exactly
▁design
▁vehicle
it
5
▁charges
▁Los
▁Korea
▁add
▁miles
▁ability
▁receive
▁guys
▁Two
▁largest
▁details
▁article
▁safe
▁pulled
▁message
▁arrested
▁Council
▁Co
▁efforts
▁drug
▁arrived
▁product
▁executive
▁compared
▁hot
f
ness
▁paper
▁2015
▁size
▁De
▁press
▁letter
▁General
▁Why
▁related
▁positive
us
▁runs
▁21
▁victory
le
▁sitting
▁costs
▁simple
▁George
▁watching
▁spot
▁cover
▁dark
▁Florida
▁travel
▁learned
▁posted
▁sat
▁regular
▁quality
▁goals
▁treatment
▁eventually
▁piece
▁contact
▁shared
▁Smith
▁band
▁base
▁failed
▁wall
▁eat
▁Google
▁schools
▁particular
▁particularly
&
▁extra
▁street
day
▁cold
▁investment
▁caught
no
▁agency
▁begin
▁effect
▁features
▁border
▁Most
is
▁required
▁act
▁bought
▁revenue
▁previously
▁English
▁Bank
▁residents
▁calls
▁offered
▁Oh
▁users
▁eye
▁rules
▁forced
as
▁prices
▁herself
▁married
▁King
▁holding
▁joined
▁accused
▁jobs
▁management
▁agreed
▁demand
▁charged
▁favorite
▁driver
▁Indian
▁material
▁Al
▁V
▁art
▁multiple
ar
▁sex
▁sit
▁spending
▁parts
▁issued
▁certainly
▁Yes
▁contract
▁beyond
▁winning
▁guess
▁Red
▁onto
▁annual
▁speak
▁People
▁district
▁aren
▁natural
▁Although
▁Party
▁Today
▁choice
▁Many
▁authorities
▁page
F
▁forces
ie
▁overall
▁hearing
▁conditions
▁enjoy
▁weather
▁numbers
▁beat
▁note
▁lack
9
▁meant
▁gun
▁Angeles
▁box
▁older
▁yesterday
na
▁W
▁album
▁network
8
▁comments
▁Democratic
▁Union
▁save
▁wide
▁interesting
▁calling
of
▁Also
▁lived
▁Road
▁levels
▁cash
▁minister
▁Mark
▁revealed
▁claims
▁Like
▁search
▁approach
ton
▁spoke
▁France
▁majority
▁Mike
▁budget
▁agreement
▁located
▁caused
▁challenge
▁double
▁Black
▁review
7
L
▁individual
▁walking
▁trial
▁asking
▁investors
▁en
▁violence
▁Another
▁sell
▁blue
▁missing
▁defense
6
▁German
▁grow
▁Because
J
▁consider
▁normal
▁$
▁card
▁fear
▁projects
▁telling
▁Apple
▁ensure
▁dinner
▁movement
▁adding
▁quick
▁organization
▁District
▁clean
▁claimed
▁@
▁Clinton
▁Democrats
▁income
▁Times
▁poor
_
te
▁mid
▁employees
▁minute
▁injury
▁managed
▁mostly
▁window
▁amazing
▁basis
▁excited
There
▁department
▁judge
▁College
▁Man
▁yourself
▁Bill
▁boys
▁confirmed
▁app
▁reality
▁protect
▁22
▁seat
▁al
▁Let
▁designed
▁weight
▁competition
▁stood
son
▁patients
▁thousands
▁dropped
▁park
▁noted
▁language
▁2014
▁pair
▁perhaps
▁successful
▁send
▁places
▁putting
▁cancer
▁hurt
▁Africa
▁finish
▁cars
▁knows
▁yards
▁rise
O
nd
▁credit
▁Japan
▁placed
▁female
de
▁prison
▁concerns
▁Americans
▁whatever
▁Chicago
▁battle
▁picked
▁north
▁X
▁construction
▁Once
In
▁Office
▁businesses
▁Health
▁computer
▁damage
▁planned
▁$1
▁2019
▁0
▁host
▁ten
▁Germany
▁green
▁Canadian
term
▁definitely
▁speed
▁Act
▁standing
▁Chris
▁join
▁Johnson
▁directly
▁attempt
▁Robert
▁Both
▁believed
▁bar
▁avoid
▁developed
▁systems
▁central
▁century
▁fully
▁sports
▁rates
▁heavy
▁Chief
▁funds
▁Israel
▁net
▁wish
▁1,
▁Bay
ic
ta
If
▁committee
▁Association
▁activities
▁Tom
▁culture
▁crime
▁learning
▁fit
▁appear
▁subject
▁traffic
▁funding
▁cool
▁Photo
▁Justice
▁claim
▁train
▁improve
▁lose
▁planning
▁limited
el
▁Maybe
▁provides
▁professional
▁please
▁doctor
▁pictures
ist
▁specific
▁television
▁serve
▁Other
▁Mexico
▁ice
▁supposed
▁River
▁EU
▁të
▁highest
▁Brown
▁physical
▁image
▁difference
▁Jones
▁offers
▁brand
▁bus
▁missed
▁block
▁Q
▁sale
▁truth
▁Hall
▁Prime
▁bottom
▁operations
▁gives
▁drop
▁60
▁Committee
▁analysts
▁wearing
▁dad
W
▁reasons
▁gold
ia
▁push
▁camera
▁decades
▁environment
▁23
▁continues
▁ride
▁Britain
▁mentioned
▁sector
▁debt
▁style
▁Thomas
▁Air
▁arms
▁showing
▁feature
▁helping
▁necessary
▁Western
▁parties
0
▁Me
▁grew
▁speech
ism
▁launched
▁appears
▁African
▁brain
▁easily
They
▁Government
▁murder
▁society
▁nature
▁south
▁conversation
ley
at
▁broke
▁Scott
▁becoming
▁ex
▁peace
▁traditional
”.
▁criminal
▁explained
▁Jan
▁NFL
▁talked
▁ones
▁watched
▁Church
ling
▁CEO
▁platform
▁raise
–
▁Central
▁Your
▁powerful
▁activity
▁Those
▁que
▁victims
▁Green
▁Big
▁victim
▁worse
▁s
▁(@
▁owner
▁Commission
▁happens
▁device
▁modern
▁items
▁tree
▁twice
▁attacks
▁fighting
▁option
▁produced
▁score
▁carry
▁partner
▁earnings
▁sites
▁threat
▁Can
un
▁crowd
▁Republicans
▁hotel
▁Christian
▁digital
la
▁cross
▁Amazon
▁nuclear
▁programs
▁corner
▁Post
▁tough
▁interested
▁alleged
▁candidate
H
ra
▁crisis
▁Go
▁finding
▁launch
▁markets
▁climate
▁rain
▁Martin
▁clearly
▁trust
▁2018.
▁wonderful
▁covered
▁27
▁direction
▁whom
▁Iran
less
▁condition
▁pro
▁Star
▁keeping
▁rule
▁arm
▁losing
▁shown
▁options
▁active
▁highly
by
▁choose
▁headed
▁Despite
▁Ben
▁leadership
▁lines
▁28
▁council
▁screen
▁m
▁Australian
▁Over
▁talks
▁cities
▁benefit
▁photos
▁26
▁actions
land
▁Kim
▁Their
▁voters
▁commercial
ma
▁2017.
▁tour
▁completed
▁section
▁fan
▁truly
▁Re
▁remained
▁discovered
▁filed
▁independent
▁slow
▁larger
▁miss
▁benefits
▁realized
▁dollars
▁se
▁primary
▁starts
▁spring
▁location
▁laws
▁die
pm
▁request
▁Company
▁standard
▁super
▁plant
one
▁setting
▁Super
▁closer
▁proposed
▁dream
▁Peter
▁snow
▁scheduled
▁cast
▁path
v
▁kill
▁hadn
▁opportunities
▁suggested
▁injured
▁fair
▁sources
▁Ryan
▁Hill
▁vehicles
▁birth
▁characters
▁worst
▁names
▁color
j
▁opposition
▁skin
V
▁hoping
▁foot
▁science
▁Sam
▁2017,
▁camp
▁Lake
▁Williams
▁wind
▁mouth
▁respect
▁sun
▁responsible
ity
▁presidential
▁analysis
▁filled
▁stated
▁Joe
▁carried
▁busy
▁2013
▁author
▁o
▁flight
▁winter
▁direct
▁knowledge
▁concerned
▁progress
▁code
▁committed
▁abuse
rs
▁hasn
▁Jack
▁emergency
▁status
▁teacher
▁shop
X
▁guilty
▁established
▁Lee
▁Research
▁advantage
▁communities
▁mine
▁El
▁fund
▁etc
▁feels
ry
▁catch
▁Carolina
▁spokesman
▁2012
▁surprise
▁unit
▁radio
▁village
▁Instead
out
▁pull
▁kid
▁tomorrow
▁individuals
ne
▁prior
▁resources
▁attorney
▁touch
▁disease
▁unique
▁agree
▁Daily
▁seeking
▁injuries
▁sea
▁records
▁insurance
▁healthy
▁Service
▁homes
▁elections
▁broken
▁prevent
▁easier
▁Who
▁t
▁marriage
▁y
▁yes
▁slightly
▁mobile
▁focused
▁2016,
▁critical
▁Be
▁software
▁warm
▁supply
▁truck
▁operating
▁noticed
▁coffee
▁birthday
do
▁ordered
▁massive
▁Before
▁fresh
▁separate
rd
▁aware
▁mission
▁spread
ation
▁male
off
da
▁thanks
▁steps
▁Good
▁weren
▁audience
▁restaurant
▁episode
▁Associated
▁rose
▁Club
▁session
w
▁greater
▁entered
▁presence
▁Pro
▁policies
▁politics
▁identified
▁Secretary
▁Mary
▁Great
▁plays
▁tells
▁centre
▁Jesus
▁reduce
▁Lord
▁rock
▁tournament
▁fellow
▁intelligence
▁equipment
▁weapons
▁killing
▁extremely
▁housing
▁happening
▁suspect
▁Will
▁Army
▁hate
▁assault
▁kitchen
▁Pakistan
▁devices
▁d
▁ideas
▁hundreds
▁Syria
▁Supreme
▁notice
▁trouble
▁strength
▁Valley
for
▁offering
▁strategy
ch
▁complex
▁facing
▁drugs
▁decide
▁creating
▁ban
▁Virginia
▁meaning
▁owned
▁introduced
▁bag
▁doubt
▁allegations
▁William
▁smaller
▁animals
▁Ms
(
▁mental
▁Island
▁allows
▁develop
▁lunch
▁recorded
▁proud
▁concern
▁providing
▁ship
▁ratio
▁Steve
▁suffered
▁2018,
That
▁29
▁wonder
▁clothes
▁removed
▁wear
▁produce
▁prepared
▁Paris
▁except
▁heat
▁winner
▁tonight
▁crazy
▁eating
▁Institute
▁display
▁internet
▁text
▁fired
▁Matt
▁dollar
▁explain
▁decade
▁draw
▁machine
▁Ohio
▁enjoyed
▁seconds
▁Year
▁skills
▁fifth
▁civil
line
▁journey
▁remaining
ka
▁willing
▁Security
▁smile
▁debate
▁elected
▁allowing
▁guard
▁memory
▁dogs
▁Richard
▁Toronto
▁Board
▁Thank
▁influence
▁degree
▁effects
▁dangerous
▁initial
▁lots
led
▁coverage
▁Director
▁require
▁exchange
▁worry
▁Le
▁Boston
▁bringing
we
▁Public
▁purchase
▁file
▁apartment
▁illegal
▁drink
▁Meanwhile
▁speaking
▁Still
▁bigger
os
▁thank
▁=
▁leg
▁measures
▁appearance
▁justice
▁plenty
Y
▁citizens
▁earned
▁generally
▁pushed
!”
U
▁sweet
▁Fox
▁approved
▁actual
▁negative
▁user
▁younger
be
▁application
▁crash
▁trading
▁hopes
▁2011
▁effective
▁Asia
▁struck
▁documents
ner
▁measure
▁2010
▁owners
▁county
▁domestic
▁realize
▁debut
▁sick
▁nearby
▁collection
▁70
▁increasing
▁religious
▁sides
▁legislation
▁Please
▁imagine
men
▁operation
▁Jackson
▁mass
▁understanding
▁500
▁signs
▁existing
▁storm
▁holiday
▁occurred
▁surgery
▁Every
▁species
▁opinion
▁surprised
▁responded
▁wedding
▁draft
▁balance
▁approximately
▁trees
▁Korean
ro
▁Federal
▁buying
▁chair
▁connection
▁glass
▁gain
▁edge
▁shut
▁selling
▁writer
▁secret
▁lawyer
▁Get
▁accept
▁turning
ian
▁drove
▁affected
▁island
▁plus
What
▁FBI
▁arrest
▁believes
▁originally
▁denied
▁stores
▁figures
▁changing
▁pieces
▁broadcast
▁paying
▁II
▁solution
▁gift
▁stars
▁respond
@
▁songs
▁90
▁familiar
▁absolutely
▁attended
▁slowly
▁Andrew
▁facility
▁di
▁studies
▁Saudi
▁thoughts
▁university
▁candidates
▁fish
▁possibly
▁anyway
▁Finally
se
▁reportedly
▁throw
▁mark
▁nor
▁purpose
▁Sun
▁decisions
▁discuss
▁enforcement
▁Life
▁Under
▁refused
▁confidence
▁Z
▁cell
▁faith
▁award
▁shopping
▁Japanese
▁Foundation
▁Michigan
▁sad
▁forget
▁animal
▁stayed
▁challenges
▁31
▁presented
▁shots
▁funny
▁handle
▁Home
▁faces
ni
▁capacity
But
▁moments
▁pointed
▁advice
▁declined
▁Sen
▁Sports
▁count
▁estimated
like
▁associated
▁famous
▁expressed
▁Open
▁totally
▁200
▁knowing
▁enter
▁2016.
▁determined
▁regional
▁distance
▁sounds
▁experienced
▁turns
▁80
▁customer
▁Grand
▁Fire
▁Earth
▁basic
▁supported
▁none
▁fuel
▁Dan
▁structure
▁unable
▁regarding
▁liked
▁Ireland
▁immigration
▁leaves
▁Alex
▁Jim
▁Game
▁legs
ville
▁quiet
▁worried
ion
▁link
▁route
▁apparently
▁comfortable
▁cards
▁crew
▁east
▁rising
Z
▁smart
▁generation
▁serving
ter
▁admitted
▁faced
▁counter
▁wake
▁largely
▁infrastructure
▁gotten
ul
▁Instagram
://
▁Royal
go
▁reporters
▁behavior
▁variety
▁listen
▁35
▁Only
▁45
▁strike
▁suddenly
▁researchers
▁streets
▁el
▁accounts
▁governor
▁banks
▁Kevin
▁passing
▁Love
▁surface
▁ruling
▁cookies
▁uses
▁Yet
▁Dec
▁v
▁views
▁delivered
▁giant
▁plane
▁agent
Q
▁Three
▁tired
▁ongoing
▁responsibility
▁seek
▁notes
▁considering
▁obviously
ment
▁solid
back
▁Centre
▁protection
ca
▁allegedly
▁usual
▁pool
▁Services
▁expensive
▁newspaper
▁parking
▁artist
▁dance
▁flat
▁dress
▁mention
▁anymore
field
▁Hospital
▁Long
▁teachers
▁unless
▁Prince
▁defensive
▁west
▁reserved
▁failure
▁actor
▁freedom
▁cat
▁images
▁standards
▁treated
▁aircraft
▁agencies
▁basketball
▁core
▁sorry
▁falling
▁deliver
▁scoring
▁types
▁warned
▁schedule
▁Blue
▁youth
▁Though
▁offensive
▁seriously
▁Each
▁professor
▁otherwise
▁experts
▁units
▁jail
▁seasons
▁shape
point
▁patient
ting
▁farm
▁grown
▁becomes
▁Wall
▁fill
▁prime
▁Charles
he
▁Mom
▁welcome
▁2015,
▁Jr
▁Management
et
▁Un
▁developing
ies
▁zone
▁Francisco
▁estate
▁Force
▁performed
▁combined
▁scale
No
▁multi
ri
est
▁rare
▁warning
▁Women
▁river
▁chairman
▁perform
▁pace
▁Arizona
▁attend
▁Time
▁About
▁airport
▁initially
▁drivers
▁Harry
▁testing
▁corporate
▁apart
▁accident
▁Beach
▁shoulder
▁taxes
▁thus
▁boat
▁supporters
▁tight
▁Are
age
▁tiny
▁remove
▁stuck
▁helps
▁con
Photo
▁alongside
▁AP
il
all
▁factors
▁Ford
▁web
▁secure
▁Adam
▁army
▁proposal
▁breaking
▁assets
▁Santa
▁shift
▁Reuters
▁receiving
▁listed
20
▁alive
▁buildings
▁Sea
▁fashion
▁background
▁visited
▁entirely
▁announcement
▁Houston
▁organizations
▁aid
▁positions
▁Middle
▁Market
▁Davis
▁tied
▁okay
▁voted
▁bodies
▁champion
▁wild
▁task
end
▁exercise
▁featured
▁conflict
▁replaced
▁Y
▁Division
▁tools
▁carrying
▁suit
me
▁THE
▁declared
▁acting
▁sharing
▁numerous
▁classes
▁Kelly
li
▁sub
▁intended
▁limit
▁update
▁seats
▁lawsuit
▁2,
▁Taylor
▁www
▁ring
▁Copyright
▁vision
▁Southern
▁doctors
▁engine
▁split
▁reduced
▁facilities
▁discussion
▁somewhere
▁formed
▁fly
▁threw
▁division
▁novel
▁stands
▁determine
▁province
▁extended
When
▁adult
▁Bush
▁dry
▁glad
▁Feb
▁2008
▁Nov
▁southern
▁Coast
▁conducted
▁protest
▁heading
▁Islamic
▁beach
▁bid
▁hits
▁Jeff
▁Bob
▁ultimately
▁campus
▁consumers
▁prove
▁pop
▁votes
▁Daniel
▁afraid
▁ourselves
▁transfer
▁matches
▁Northern
▁owns
▁panel
▁therefore
▁Italian
▁Premier
▁maintain
And
▁Sometimes
▁upcoming
▁Italy
▁lay
▁ending
▁bike
▁accepted
▁relatively
▁appeal
▁Little
▁cap
▁soldiers
▁Best
▁Tim
▁neighborhood
▁emotional
▁row
▁struggle
▁Mrs
▁sought
▁adults
Reuters
▁Law
▁horse
▁possibility
▁chain
▁$2
▁quarterback
▁plants
▁function
▁movies
▁forecast
▁strange
▁c
▁directed
▁concept
▁survey
▁square
▁bridge
▁manage
▁expansion
▁identify
▁millions
▁flow
▁defeat
▁suggest
ir
▁improved
▁NBA
▁neck
▁]
▁environmental
▁jump
▁Mo
▁chose
▁faster
▁Bar
▁conservative
▁vice
born
▁Muslim
▁replace
ty
▁consumer
▁Spanish
▁obvious
ja
▁northern
▁marijuana
ko
▁Bowl
▁Back
▁films
ine
▁assistant
▁pounds
▁union
▁apply
▁plastic
▁Nick
▁Brexit
▁Capital
▁promise
▁empty
▁parent
▁championship
▁mix
▁secretary
▁Attorney
▁joint
▁Read
▁connected
▁Miami
▁potentially
▁Thanks
▁metal
▁promised
▁identity
over
▁hell
▁Energy
▁era
▁traded
▁Oct
▁impossible
▁authority
▁achieve
▁2009
▁Young
▁troops
▁sport
▁stake
▁tech
▁minor
▁models
▁Brian
▁shouldn
▁exciting
▁Show
▁talent
▁stepped
▁interests
▁USA
▁lady
▁attempted
▁Pacific
▁treat
▁taught
▁suffering
▁Posted
▁gender
▁sentence
▁increasingly
▁expectations
▁requires
▁causing
▁everybody
side
▁instance
▁Internet
▁Iraq
▁relief
▁Team
▁partners
▁stick
▁Old
▁marketing
▁conduct
▁baseball
▁returning
▁Manchester
so
▁valued
▁pic
▁chest
▁Colorado
▁statements
▁applications
ke
lin
▁retired
▁Conference
▁Jordan
▁Jewish
▁profit
di
▁kick
▁appointed
▁Following
▁ceremony
per
▁anywhere
▁purchased
▁bright
▁retail
▁Georgia
▁magazine
▁internal
▁typically
▁entry
▁Avenue
▁boss
▁values
▁brings
▁supporting
▁Judge
▁feed
▁Catholic
▁laid
▁wine
My
▁tests
▁hole
▁pregnant
run
▁waste
▁experiences
game
▁reporting
ized
▁shoes
▁Wilson
▁Right
▁pushing
▁visitors
▁tend
▁boost
▁tears
um
▁doors
▁lights
▁cuts
▁Turkey
▁desire
▁Israeli
ah
▁houses
▁begins
So
▁soft
▁loan
yard
▁percentage
▁angry
▁b
▁materials
▁upset
▁Where
▁Rs
▁teaching
▁breath
▁Van
▁stress
▁honor
▁commitment
ally
▁Joseph
▁Queen
▁surrounding
▁Global
▁singer
▁rich
▁flying
ey
▁beer
▁studio
▁poll
▁invited
▁grand
▁greatest
▁length
▁Society
▁l
▁Louis
▁industrial
ish
As
▁van
▁Irish
▁Miller
▁Rose
▁Jason
▁n
▁Several
▁fix
den
▁Zealand
▁hitting
▁Jersey
▁advance
▁holds
▁Award
▁artists
▁visiting
way
▁alternative
▁native
▁Media
▁false
▁founded
▁approval
▁coast
▁squad
▁roll
▁lawmakers
▁penalty
▁gay
▁Art
▁Up
She
▁earth
▁drinking
▁argued
▁immediate
▁Stadium
ya
▁contributed
▁drama
▁advanced
▁volume
▁armed
ur
▁specifically
▁escape
▁stocks
▁lucky
▁labor
▁clients
▁Eric
▁reaction
ization
▁leads
▁Town
▁brief
▁Free
▁Kansas
▁shortly
▁videos
▁roads
▁creative
▁shirt
ier
▁sending
­
▁driven
▁harder
▁2014,
▁Academy
▁See
▁bathroom
▁discussed
▁appropriate
▁struggling
▁awesome
▁Vegas
▁posts
▁forever
▁Rep
▁electric
▁dedicated
▁BBC
▁Education
▁sixth
▁involving
▁Frank
▁barely
▁celebrate
▁laugh
▁alcohol
▁closing
▁spirit
▁Minnesota
▁Spain
not
▁basically
▁Henry
▁publicly
▁Hollywood
▁Business
▁affect
va
▁Rock
▁factor
▁library
▁Republic
wood
▁Community
▁attempts
▁meetings
▁competitive
▁Asian
▁offense
▁package
▁Seattle
▁garden
▁Championship
▁relations
▁Dad
▁returns
▁reform
▁officially
▁feelings
▁Did
▁Nigeria
▁matters
▁dealing
▁downtown
▁delivery
▁suggests
▁rally
▁Mac
▁ends
▁theory
▁Scotland
?"
▁agents
▁raising
▁somehow
house
▁technical
▁correct
▁handed
▁argument
▁cells
▁minimum
+
▁linked
▁grade
▁trend
▁recovery
▁messages
▁informed
▁2015.
long
▁fairly
▁Ministry
é
▁Alabama
▁iPhone
▁selected
▁Music
▁Christ
▁moves
▁opposite
▁exist
▁neither
▁Development
▁Sarah
▁breakfast
▁beauty
▁cultural
▁dividend
▁mixed
Posted
▁inspired
▁voting
▁honest
ary
▁jumped
▁continuing
▁sky
▁index
▁closely
▁represent
▁widely
▁appointment
▁gained
▁bond
▁solutions
▁wins
▁tickets
▁employee
▁hundred
uk
▁+
▁Yeah
▁indeed
▁Four
▁tool
▁Next
▁na
month
▁Journal
▁Golden
▁Perhaps
▁Detroit
▁Sept
▁grabbed
▁somewhat
▁loves
▁sight
▁Mar
▁scientists
▁Stephen
▁confident
▁storage
▁Second
▁UN
ce
▁vs
▁Philadelphia
▁Among
▁locations
▁Image
org
▁Nations
▁saved
▁f
▁analyst
▁defence
▁heavily
▁Las
▁32
▁milk
id
▁sanctions
▁aside
▁severe
▁walls
▁ticket
▁importance
▁Games
▁significantly
▁Corp
▁dozen
▁deaths
▁rescue
▁tweeted
▁sleeping
▁pitch
▁crimes
▁perspective
lo
▁impressive
▁referred
10
▁LLC
▁decline
▁expand
▁memories
▁festival
▁veteran
▁map
▁margin
▁Syrian
▁contest
▁Have
ge
▁duty
ha
▁document
▁innings
▁chosen
▁forms
▁Tony
▁semi
▁registered
▁pages
▁criticism
▁Financial
▁granted
▁combination
▁transaction
▁cutting
▁institutions
▁privacy
▁Microsoft
▁shoot
▁equal
▁Which
▁tea
▁silver
▁excellent
▁acquired
▁Real
▁updates
▁producer
▁assistance
▁wave
▁steel
ler
▁attacked
▁ruled
▁Justin
▁circumstances
▁roughly
▁staying
▁tie
▁GOP
▁threatened
▁da
▁literally
▁Mayor
▁Later
▁joy
▁captain
▁Gold
▁mile
▁bear
▁possession
▁Power
▁elements
▁deals
▁payment
▁scheme
▁Cleveland
▁channel
▁transition
▁Click
▁meat
▁bunch
▁motion
▁heads
▁meal
▁newly
▁brown
im
▁degrees
▁knee
▁capable
For
▁losses
▁reaching
▁stronger
▁upper
▁incredible
▁farmers
▁CNN
▁orders
▁listening
▁Sheriff
▁proper
▁risks
▁Atlanta
▁blame
▁Medical
▁stone
▁Anthony
▁settled
▁represents
▁encourage
▁smoke
▁3-
▁method
▁resolution
▁favor
▁yellow
▁planet
▁Parliament
▁x
▁hall
▁cloud
▁opposed
▁amid
▁CBS
▁franchise
well
▁fiscal
▁historic
▁Moore
twitter
foot
▁awarded
▁relationships
▁weird
▁Olympic
▁master
ak
▁Festival
▁shock
▁2000
▁Agency
▁brothers
sa
▁stretch
▁rural
▁frame
▁mainly
▁2007
▁10-
▁commission
ant
▁1990
▁wore
▁captured
con
io
▁deputy
▁estimates
▁drawn
▁technologies
▁fought
▁Aug
▁engaged
▁Ali
▁replied
ron
▁("
▁repeatedly
▁regulations
▁violent
▁Take
▁teach
▁cycle
▁në
▁admit
▁bench
▁understood
▁trail
▁prepare
▁Ltd
mo
▁urged
▁OK
▁signing
▁Museum
▁client
▁pack
▁regularly
▁mayor
▁consensus
▁Morgan
▁folks
▁Sydney
▁Miss
▁participate
▁et
but
▁Patrick
▁mistake
▁harm
▁com
▁humans
▁properties
▁passes
▁Dallas
▁fixed
▁waited
▁ties
▁historical
▁taste
▁primarily
▁Khan
▁western
▁follows
▁Earlier
▁$3
▁Series
▁musical
▁deeply
ate
▁soul
▁click
▁unknown
▁battery
▁Democrat
▁Diego
▁loud
▁lie
▁cup
▁politicians
▁yard
▁cry
▁chances
▁compete
▁terrible
▁gathered
▁friendly
▁Top
▁weapon
▁detail
▁Corporation
▁destroyed
▁practices
▁smiled
▁represented
▁port
▁Night
▁joining
▁temperature
▁Eastern
bo
▁protests
▁classic
▁Family
▁guide
▁Unfortunately
▁Watch
▁lying
▁Android
▁recognize
▁cute
▁creation
▁letters
▁bottle
▁summit
▁custody
▁Labour
▁constantly
▁concert
▁flag
▁distribution
▁rejected
▁complaint
▁command
▁hoped
▁manner
▁investigating
▁1980
▁Images
▁hanging
▁finance
▁everywhere
▁promote
▁actress
▁aimed
▁threats
▁resident
▁Foreign
▁territory
▁Ontario
▁Speaking
▁readers
▁shall
▁theme
▁dressed
▁useful
▁proved
▁grateful
▁sets
▁struggled
▁partnership
▁suicide
▁drew
▁solar
▁Social
▁Hillary
▁programme
au
der
▁Former
▁suspended
NYSE
▁Hi
▁mountain
▁fees
▁cream
▁wanting
▁passengers
▁anniversary
▁ministry
▁ill
▁applied
q
▁Pennsylvania
▁button
▁manufacturing
▁figured
▁payments
▁Ed
▁danger
▁pattern
Our
▁portion
▁editor
▁Sanders
▁sugar
▁stolen
▁frequently
▁segment
▁adopted
▁unlikely
▁twenty
▁crying
▁woke
▁tall
▁Josh
if
▁fingers
▁convicted
▁fallen
▁wood
▁Lewis
▁junior
▁Project
▁bedroom
▁Per
▁causes
▁le
▁Governor
▁founder
▁riding
▁300
related
ba
▁currency
▁targets
▁transport
▁afford
▁latter
▁chicken
▁Elizabeth
which
▁fake
▁thinks
▁equity
▁expert
▁worldwide
▁lovely
▁extreme
▁dating
▁Tennessee
▁|
▁permanent
era
▁$5
▁vast
▁recognized
▁entering
▁letting
▁roof
▁acts
▁targeted
▁earn
▁calm
▁Navy
ti
▁reference
▁hired
▁babies
▁firms
▁Human
sh
▁Anderson
▁paint
▁plate
▁blow
▁PM
▁scared
▁guest
▁fat
▁2013,
▁Moscow
);
▁noise
▁retirement
ous
▁lies
▁gap
▁(19
▁jury
▁phase
▁Illinois
▁2019.
round
▁Putin
▁necessarily
▁communication
▁fraud
▁Assembly
ina
▁beating
▁MP
▁copy
▁Officer
▁participants
ana
▁appreciate
▁Executive
▁Gov
▁constant
▁Football
▁stations
down
▁Men
▁colleagues
▁luck
ise
▁checked
▁resulted
▁selection
▁context
called
▁license
▁Water
▁emerged
▁corruption
▁comfort
▁36
ful
▁marked
▁investigators
▁anger
ive
ov
▁fewer
▁guns
▁Port
▁Disney
▁https
free
▁Brazil
▁religion
▁guests
▁bills
▁Fund
▁negotiations
▁approached
▁combat
▁requirements
▁rear
▁category
▁zero
▁Rights
▁Allen
▁agenda
▁answers
▁Vice
▁Singapore
▁perfectly
▁essential
▁2006
▁tackle
▁nose
▁describe
▁magic
▁Lady
ad
▁consecutive
▁newsletter
▁Out
▁regime
▁covering
▁personnel
▁Having
▁coal
▁increases
American
▁entertainment
▁3,
▁NBC
▁evil
▁Ten
▁Dave
▁nations
▁Plus
▁Science
▁effectively
▁respectively
▁pilot
▁Week
▁weak
▁bags
▁Afghanistan
▁obtained
▁33
▁del
▁Trust
▁somebody
▁1970
▁carbon
▁defeated
▁Con
▁desk
ted
▁Ma
▁lifted
▁properly
mi
▁%
▁immigrants
▁challenging
▁collected
▁estimate
▁inches
▁400
▁Network
▁Ken
▁counts
▁windows
▁locked
▁recording
▁hang
▁Columbia
▁keeps
▁witness
▁hat
▁Bell
▁Car
▁incredibly
▁Sir
ga
▁En
▁Special
▁Kingdom
▁tradition
▁suspected
▁tweet
▁pleased
▁g
▁mail
▁Max
▁stomach
▁exact
▁powers
▁rolled
right
▁Iowa
▁clothing
ek
▁organized
▁2014.
▁answered
▁findings
▁auto
▁arrive
▁Di
▁settlement
▁mess
▁portfolio
▁typical
▁consistent
▁Was
▁defend
▁permission
▁sentenced
▁forest
▁Victoria
▁object
▁topic
▁Austin
▁Mueller
▁Beijing
▁behalf
▁exposed
▁operate
▁2012,
▁enjoying
▁tracks
▁YouTube
▁Chelsea
▁tries
▁passenger
▁pulling
▁throwing
▁protected
▁odd
don
▁Everyone
▁expecting
▁chocolate
▁childhood
▁Tour
▁survive
")
▁trained
▁Children
▁remembered
▁prosecutors
car
▁finger
▁normally
▁laughed
▁Li
▁49
▁Harris
▁Anyway
▁coalition
▁Delhi
▁Ross
▁Simon
▁Arabia
▁plot
▁unusual
▁nobody
za
▁clock
▁wondering
▁lawyers
em
▁claiming
▁gonna
▁detailed
▁Jay
▁expression
▁teeth
▁Live
To
▁encouraged
▁Jose
▁choices
wa
▁stable
ize
▁switch
▁exit
▁Local
▁maximum
▁65
▁thrown
▁boyfriend
▁footage
▁ka
▁assist
▁relevant
▁nurse
▁tip
▁priority
▁rival
▁contrast
▁backed
▁nervous
▁awareness
▁Kong
▁worker
▁argue
▁allies
▁prominent
▁races
▁outcome
▁pet
▁tested
▁drawing
▁covers
▁Hong
▁pink
▁$10
▁controversial
▁Fort
▁failing
▁urban
▁pot
▁print
▁temporary
▁mode
▁rape
▁34
▁cake
▁reflect
▁fee
▁singing
▁assists
ten
▁supplies
▁Ray
▁adds
▁seventh
▁governments
▁asks
ut
▁Again
▁ABC
▁apps
▁electricity
▁Oklahoma
▁silence
more
ance
kin
▁initiative
▁reputation
▁u
▁rough
▁Okay
▁ranked
▁playoff
ham
▁employment

▁Bo
▁Highway
ang
▁hide
▁lift
▁Radio
▁reveal
▁Liverpool
▁cleaning
▁Rob
▁sharp
▁scientific
▁consequences
▁personally
▁roles
▁concluded
▁hosted
▁preparing
▁streak
▁rooms
▁performing
▁opponents
▁Care
je
head
▁regions
▁extent
▁dreams
▁contains
▁investigate
▁improvement
▁NHL
▁MORE
▁ancient
▁featuring
▁roster
▁weekly
▁ear
▁aggressive
▁disaster
▁stupid
▁foundation
▁critics
▁charity
ite
▁Wisconsin
▁girlfriend
▁stream
▁broad
▁blocks
▁Any
▁shower
▁për
▁para
▁Oregon
op
▁eastern
▁Mexican
▁asleep
▁scenes
▁formal
▁valuable
▁Am
▁profile
▁Investment
▁chemical
▁clubs
▁painting
▁racing
▁filing
▁controlled
level
▁Indiana
▁temperatures
sen
▁aged
▁vulnerable
▁Rick
▁75
▁rebounds
TV
ki
▁fruit
▁carefully
▁Sky
▁Food
▁wealth
▁dozens
▁routine
▁intense
▁2005
▁Pat
▁Walker
▁successfully
▁monthly
▁academic
▁Such
ji
▁connect
ised
▁terrorist
▁Olympics
▁packed
ford
▁1960
ger
▁Singh
▁shit
▁crucial
▁Va
▁differences
▁inflation
Star
▁Matthew
▁explains
▁Alexander
ard
▁hopefully
▁till
▁inning
▁48
▁moon
▁Bridge
▁enemy
▁transportation
▁Head
▁resulting
▁medicine
▁PC
▁lake
▁strategic
▁loans
▁hardly
▁recommend
▁prize
▁cheap
▁goods
▁thick
▁select
ists
bar
▁arrival
▁contain
▁Missouri
▁appearances
▁soccer
▁finishing
▁spotted
▁Land
▁grab
▁4,
▁picking
▁Roman
▁strongly
▁Clark
▁Soviet
▁household
▁Netflix
▁Kentucky
▁kinds
▁Defense
vi
▁headquarters
▁landed
▁essentially
▁relative
▁Ka
▁achieved
▁reporter
▁fail
▁branch
star
▁fields
30
▁convinced
▁indicated
▁guidance
▁mood
▁pleaded
▁king
ney
▁begun
▁error
▁invest
▁Thompson
hour
▁spokesperson
▁phones
▁IT
▁survived
▁Station
▁recall
▁methods
▁Cross
▁existence
▁museum
▁links
▁Utah
class
▁absence
▁Book
▁birds
wing
▁cheese
▁flowers
▁Five
▁cited
▁aim
-1
▁bomb
▁sees
▁cameras
▁38
▁athletes
▁communications
▁hidden
▁~
her
▁explore
▁km
▁awards
▁insisted
▁Area
▁smell
▁illness
▁liberal
▁advertising
▁expanded
▁kicked
▁opponent
▁unclear
▁Major
ster
▁hockey
▁thin
▁therapy
town
▁pregnancy
▁Airport
▁coaches
▁Chairman
▁grant
▁monitor
▁limits
All
▁spoken
▁posting
▁titles
▁comedy
▁parliament
▁golf
mer
▁activists
▁Windows
▁Civil
▁Without
▁studied
▁enable
▁serves
▁Follow
▁fantastic
▁Pa
▁Father
▁Ho
▁chapter
▁replacement
▁occur
▁download
▁rarely
▁150
▁sand
▁entrance
▁capture
▁diet
▁Charlie
▁recommended
▁crossed
▁pants
▁spokeswoman
▁tone
▁assigned
▁wing
▁ocean
▁dis
▁loving
▁improving
▁Senior
▁situations
izing
▁recognition
▁journalists
▁attached
▁atmosphere
▁engineering
▁sudden
▁thousand
▁edition
▁aspects
▁contained
▁Administration
pa
▁emails
▁Mother
▁37
▁stadium
▁loose
vo
▁democracy
▁formula
▁Check
▁searching
▁investments
▁collect
▁par
▁pray
▁poverty
▁touched
▁”
▁ratings
▁Jon
high
ng
▁2011,
▁Hamilton
▁journalist
▁Greek
▁elsewhere
▁traveling
▁Mountain
▁networks
▁caption
▁Kate
▁Duke
▁remarks
▁purposes
▁extend
▁ease
▁wheel
▁assume
▁Winter
▁gang
▁demands
ci
ating
▁Arab
▁Gary
▁proof
▁recovered
▁finds
▁updated
▁shelter
▁belief
▁damaged
▁restaurants
▁si
▁(1
▁Barack
▁Professor
▁Awards
les
▁Maryland
▁abortion
▁extension
▁Vancouver
▁Report
▁Look
▁Wales
▁Sean
▁providers
▁gains
▁marks
▁writers
!"
▁bread
▁prefer
▁pocket
▁extensive
▁Technology
▁complaints
▁tank
▁dismissed
▁mad
▁forth
▁symptoms
▁peak
▁Jonathan
▁graduate
▁signal
▁grass
▁Ha
▁random
▁conversations
▁Massachusetts
▁Turkish
▁Arts
▁electronic
▁engage
▁Part
▁counsel
▁6,
▁representative
▁touchdown
▁association
▁yield
▁Stone
▁laughing
▁burning
▁rush
▁exposure
▁representing
▁Howard
▁Ar
▁developers
▁fears
▁requests
▁delay
▁Luke
▁medium
▁Senator
▁oldest
▁healthcare
▁Ron
▁vacation
▁Aaron
▁blocked
▁w
▁lips
▁reviews
▁vital
▁cooking
▁quit
▁1,000
▁provider
▁Da
▁wondered
▁solo
▁depression
▁Cruz
▁observed
▁offices
▁Saint
▁establish
▁Square
▁harassment
▁banned
▁redistributed
▁passion
▁tariffs
▁apparent
▁00
▁confirm
▁royal
▁gym
▁Nothing
▁Picture
with
▁scandal
▁load
▁2004
▁rent
▁bars
▁hung
ju
▁whenever
▁Graham
▁papers
▁anybody
▁reminded
▁personality
▁refugees
▁celebration
▁DNA
▁Scottish
▁abandoned
▁buried
▁bird
▁depending
▁wrapped
mar
▁funeral
▁depth
▁anxiety
ol
▁eggs
▁occasion
▁lowest
▁attitude
▁missile
▁Samsung
week
▁terror
▁Anna
▁deadline
▁contracts
▁seed
▁dramatic
▁scores
▁careful
▁Uber
Re
▁overnight
▁Murray
▁disappointed
▁gifts
▁installed
▁Bible
▁Jean
▁Policy
▁Note
▁shocked
▁publication
▁walks
▁knife
▁narrow
▁Phil
▁Fed
▁Atlantic
▁trends
▁$4
▁Kyle
▁suspects
▁Madrid
▁pipeline
▁Andy
▁complicated
▁attending
▁landing
▁Cohen
▁Trade
▁moral
▁exclusive
▁Kennedy
▁Eagles
▁Being
▁DC
▁rolling
▁conclusion
▁Warriors
▁maintained
▁Jo
▁wounded
▁Pittsburgh
▁label
▁Su
▁crude
▁Carter
60
▁audio
season
▁articles
▁Sign
▁reasonable
▁42
▁dispute
▁ages
▁shook
ber
▁fishing
▁brands
lan
▁boxes
▁Oak
▁concrete
▁circle
▁writes
▁pm
▁gear
▁Memorial
▁express
▁resistance
▁gross
▁Bureau
▁ships
▁Baltimore
minute
▁decent
▁wage
▁55
▁ideal
▁prayer
▁Denver
▁highway
▁pursue
▁favourite
▁acknowledged
▁divided
▁ate
▁colors
▁surrounded
▁volunteers
▁item
▁fault
▁Ridge
▁Greg
ă
▁managing
▁Field
▁menu
▁2010,
▁7,
▁Cook
▁eighth
▁maintenance
▁Things
▁principal
net
▁Boy
pe
ny
▁protesters
▁solve
90
▁helpful
▁horses
▁deficit
▁Make
▁2020
▁Wood
▁dying
PA
▁prospect
gen
▁Cal
▁cable
▁addressed
▁regardless
▁momentum
▁producing
▁swimming
▁defined
▁everyday
▁discussions
▁Champions
▁spots
▁lesson
▁Na
▁Edward
▁files
▁des
▁sing
▁Francis
▁opinions
[
▁polls
▁Affairs
▁output
▁badly
▁landscape
▁Lu
▁register
▁hill
▁Jane
▁ownership
▁judges
▁inter
▁winds
▁facts
▁celebrated
▁Lo
▁outstanding
▁courts
fi
▁Call
▁mini
▁rushed
▁Egypt
jo
▁Come
▁producers
▁affairs
ED
law
▁Ukraine
▁objective
▁sensitive
▁suffer
▁joke
can
▁machines
▁Space
▁Antonio
▁chart
▁versus
that
ó
▁por
▁hero
▁oh
▁performances
▁Russell
▁requested
▁consumption
▁flew
▁neighbors
ex
▁39
▁questioned
▁behaviour
▁Channel
▁trailer
▁independence
▁Ko
▁expenses
▁lessons
▁Te
▁dhe
▁incidents
▁remote
▁deeper
▁contribute
▁sheet
▁rapidly
▁knocked
▁Film
▁cannabis
▁Creek
use
▁deadly
▁Sure
▁Him
▁asset
▁eligible
▁browser
▁garage
▁yeah
▁playoffs
NASDAQ
▁Everything
▁repeated
▁dates
▁viewers
▁rid
▁Gen
che
▁terrorism
ball
▁actors
▁visible
▁involvement
▁grounds
▁sisters
▁grandmother
▁emotions
▁receiver
▁platforms
▁Bruce
▁Dean
ee
▁affordable
▁Latin
▁string
▁soil
▁probe
▁confused
▁rookie
▁lineup
▁cook
▁amounts
▁recalled
▁comprehensive
▁universe
▁reducing
▁Price
que
▁gathering
▁handful
▁ha
▁du
▁falls
▁accurate
▁throat
▁residential
▁industries
▁mining
▁factory
▁physically
▁NCAA
▁craft
▁silent
▁nights
US
▁22,
▁Exchange
▁Pre
▁Drive
▁2019,
▁Fair
▁banking
▁Steven
▁5,
▁Maria
▁tips
▁emissions
▁Warren
▁beside
▁k
▁Line
▁Ball
ent
▁Cooper
▁44
▁rail
▁ne
▁episodes
▁Captain
▁tape
▁Chi
▁testimony
cha
▁Express
▁reduction
making
▁winners
▁Moon
▁thankful
▁forgotten
▁puts
▁scenario
▁Point
▁representatives
▁violation
▁18,
▁saving
▁submitted
▁lock
▁raw
▁hosts
▁compensation
▁residence
▁visits
▁2013.
▁su
▁AM
▁Jews
▁Deputy
▁READ
▁Melbourne
▁lap
▁surveillance
ada
▁transferred
▁attempting
▁Authorities
▁generated
dy
▁Authority
▁savings
▁cabinet
▁cried
▁Summer
▁contacted
▁Constitution
▁operates
▁horrible
▁referring
are
▁climb
▁monitoring
▁24,
▁copyright
▁salary
▁Data
▁Jimmy
ship
▁Information
ino
▁cleared
▁equivalent
▁Whether
▁23,
▁engagement
▁encounter
▁surprising
▁coaching
$
▁Reserve
▁acquisition
▁arts
▁assessment
▁citing
▁steady
▁Dutch
▁deck
▁repair
▁seemingly
▁Hope
▁fled
▁intent
▁comparison
▁Spring
▁Orleans
▁Way
▁overseas
po
▁height
▁impressed
▁speaks
▁Play
▁drinks
▁Vietnam
▁couch
▁grocery
▁Far
▁threatening
▁merely
▁31,
▁kiss
▁unlike
▁fence
▁Tesla
▁skill
▁Theatre
▁criticized
▁adventure
▁focusing
▁cats
▁speaker
▁wound
▁©
▁Muslims
▁announce
▁ballot
▁App
▁briefly
▁8,
▁handling
▁bail
my
▁AI
▁pure
▁luxury
▁hip
▁nodded
ik
▁generate
▁flights
▁deserve
▁alert
▁lately
▁districts
▁aspect
▁smartphone
▁suggesting
▁promises
▁emerging
▁intention
▁Patriots
▁Jake
▁Charlotte
▁veterans
▁Giants
▁TO
▁Brad
▁horror
▁41
▁stairs
ou
▁Crown
▁bowl
▁Hotel
▁authors
▁Se
▁efficient
▁Forest
▁secondary
▁settle
▁operated
▁iron
▁regard
▁Class
▁III
▁pride
▁swing
▁waves
▁Du
▁30,
▁format
▁Jacob
▁Palestinian
known
▁micro
▁mistakes
▁indicate
ara
▁processes
▁restrictions
▁recover
▁Camp
▁Tech
▁27,
▁visual
▁migrants
▁MR
▁provincial
▁sa
▁Leader
▁Del
▁equally
▁Mc
▁burned
▁homeless
▁hardware
▁smooth
▁NEW
million
▁streaming
▁titled
▁Story
▁Phoenix
▁cooperation
▁21,
zi
▁neighbor
▁crossing
▁14,
▁tracking
si
▁screaming
▁log
▁medal
▁Gordon
▁ta
▁11,
▁SEC
▁implementation
▁NOT
▁nomination
▁breast
▁15,
▁recommendations
▁26,
▁Six
▁supports
40
▁abroad
▁Nelson
▁dust
▁spell
www
han
▁objects
▁cousin
▁proven
▁explanation
▁Amy
▁lab
▁{
▁educational
▁Labor
▁19,
▁duties
▁System
▁collaboration
▁stages
▁virtual
life
▁28,
ho
▁widespread
):
▁constitutional
style
mm
▁trips
▁Through
▁quarterly
▁$0
▁dancing
▁Gulf
▁Test
▁FC
ig
▁viewed
▁presentation
▁breathing
ac
▁Ann
▁shoulders
▁commit
ola
▁discover
▁institutional
▁defending
▁assumed
▁encouraging
▁expects
▁demanded
▁firing
▁minority
▁element
▁Iranian
▁Berlin
▁fighters
▁timing
▁journal
▁studying
▁ears
▁rely
▁fiction
▁striking
▁20-
▁Commissioner
▁script
ano
ani
▁gate
▁racial
▁25,
▁Lisa
▁legacy
▁toys
▁2003
▁spin
▁Sa
▁wider
▁Stanley
▁adoption
▁repeat
▁Modi
▁interviews
▁belt
▁gather
▁promotion
▁summary
▁elite
▁automatically
▁sits
▁motor
▁graduated
▁documentary
▁versions
▁improvements
▁balls
▁Jeremy
hold
▁demanding
▁painful
buy
ft
▁innocent
▁Holy
▁Grant
▁te
▁implement
▁departure
▁rapid
▁fed
▁slept
war
▁excitement
▁describes
▁adviser
▁prompted
▁Until
▁exception
ez
▁competing
▁regulatory
▁Given
▁Tri
50
▁UFC
í
▁16,
▁suppose
▁2009,
▁1950
▁rounds
▁flood
▁membership
▁mirror
▁checking
▁followers
▁29,
▁innovation
▁interior
▁Regional
▁processing
▁sessions
▁cents
▁hospitals
▁warrant
▁Robinson
▁dropping
▁anticipated
▁Arsenal
▁Eve
▁venture
▁Craig
▁manufacturers
▁pleasure
▁honestly
▁Economic
▁components
▁Portland
▁Had
▁Nevada
▁attractive
▁Battle
▁WASHINGTON
▁rewritten
▁Lane
▁Alan
▁controversy
▁breaks
▁strikes
▁52
▁voices
▁Thanksgiving
▁ignored
▁chat
board
▁venue
▁Barcelona
▁bound
▁Mississippi
▁ads
▁Ke
chi
▁orange
▁destination
▁volunteer
▁inner
▁defender
▁Yesterday
▁BJP
▁divorce
▁NASA
▁narrative
▁Program
▁stressed
▁Christopher
▁teenager
▁Country
vin
▁Orange
At
▁Conservative
▁contributions
▁43
One
▁sounded
▁Master
▁Library
▁Montreal
▁diverse
▁sample
▁stopping
▁Marine
▁establishment
inch
▁Does
state
▁Credit
▁referendum
▁000
▁ok
▁destroy
Reporting
▁2012.
▁premium
▁Harvey
ology
▁centers
▁holes
▁disappeared
▁tower
▁tail
▁9,
▁donations
▁overcome
▁Mi
▁fundamental
▁sexually
▁ranks
▁Bitcoin
▁Metro
▁techniques
▁diagnosed
▁LA
▁introduction
▁purchasing
ck
▁talented
▁collapse
▁lo
▁daughters
▁carries
party
▁los
▁god
▁legislative
▁welcomed
▁17,
▁involves
▁Mitchell
▁Po
gan
▁quietly
▁congressional
▁professionals
▁inspiration
▁Main
▁procedure
qui
tra
▁pizza
▁substantial
▁sons
▁brilliant
▁ESPN
▁Cameron
▁bone
▁clinical
▁Anne
▁Oakland
ze
▁Har
▁Susan
▁strategies
▁salt
▁12-
▁convince
▁resolve
▁Thus
▁mainstream
▁Guard
▁description
fer
▁favour
▁2008,
▁regulation
▁13,
▁fate
▁investigations
▁trillion
red
▁hire
▁examples
▁hunt
▁Sweden
▁painted
▁Tyler
▁teen
▁Besides
▁forcing
▁trick
light
▁2001
▁hedge
▁Ocean
▁20,
▁crashed
▁shops
▁lane
▁discovery
▁Queensland
▁Lincoln
18
45
▁sheriff
▁odds
▁presents
hu
▁qualified
▁obtain
▁ignore
▁Mount
ung
half
▁hiding
▁petition
▁witnesses
▁theater
▁introduce
▁surely
▁dirt
▁climbed
▁targeting
▁racist
▁coat
▁ninth
▁lifetime
▁hunting
isation
▁champions
▁employed
▁promoted
▁presidency
dis
▁definition
▁entitled
▁pointing
owned
▁drunk
▁protecting
▁movements
▁profits
▁capabilities
▁12,
▁praised
▁Ottawa
▁advised
▁Jennifer
▁dialogue
▁crack
▁Liberal
▁citizen
GB
▁Mass
berg
▁consent
ita
▁Fla
▁lifestyle
▁involve
▁affair
ns
▁Light
mon
▁AND
▁Would
▁em
▁awful
▁Much
▁alarm
▁completion
▁Roy
▁subsequent
▁dirty
▁nowhere
▁designer
▁OF
▁Ni
km
▁reader
-10
▁burn
▁stops
ë
▁investor
▁Collins
▁hosting
▁containing
▁functions
▁colour
▁SO
▁preferred
▁desperate
▁damn
▁tag
▁rivals
▁unexpected
How
▁illegally
▁websites
▁suspension
▁structures
▁$20
▁Kavanaugh
▁History
▁plain
▁Anyone
▁expanding
▁guitar
gar
▁subsequently
▁http
▁trades
▁slide
▁•
hi
▁Jerry
▁organic
▁promising
▁diversity
ING
▁tear
▁enormous
▁Hey
▁Garden
▁spiritual
▁Review
▁remind
▁teammates
▁Nation
▁expense
▁organisation
▁Ok
▁predicted
▁column
▁resort
winning
▁slipped
▁AT
▁Tigers
▁Douglas
▁naturally
▁mystery
▁tons
▁Galaxy
▁longest
▁feedback
▁Down
▁separated
fa
you
▁developer
▁jacket
▁Cape
▁fantasy
▁Grace
▁radical
▁blind
▁hungry
▁attacking
see
▁47
▁sustained
▁revenues
▁Lions
▁guards
▁Buy
ven
▁funded
▁promoting
▁2002
▁killer
▁highlight
▁patterns
▁ordinary
▁conspiracy
▁Officials
▁resigned
▁invested
▁REUTERS
ab
▁Looking
▁participation
▁accessible
▁scary
▁registration
▁occasionally
election
▁Season
▁Others
▁contribution
▁meals
▁executives
▁Editing
▁BC
▁prosecutor
▁muscle
▁Larry
▁(2
-19
▁Indeed
▁$6
▁guarantee
who
▁Wright
▁Finance
▁Action
▁managers
▁bin
▁custom
▁midnight
port
▁Brooklyn
▁absolute
▁uncomfortable
▁aims
ini
*
ran
▁experiment
▁je
▁dear
▁Stock
▁cu
▁Key
▁Something
▁CD
▁wooden
▁Control
▁consideration
Do
▁Islam
▁welfare
▁airline
▁channels
▁Baker
▁Never
▁Unlike
Oh
▁activist
▁participated
▁loaded
hand
▁pending
▁seized
ker
▁Pi
▁substance
▁projected
▁mountains
▁refer
▁slight
▁Arena
▁noting
▁journalism
▁cricket
tin
▁assured
ray
▁ultimate
▁recipe
▁Stewart
▁proposals
▁secured
▁frustrated
ski
▁Marc
ane
▁broader
▁imposed
▁Campbell
▁furniture
▁Rachel
▁delayed
ura
▁Jamie
▁editorial
▁smoking
air
▁server
▁McDonald
▁Roger
▁Louisiana
▁Parker
▁peaceful
▁periods
▁shadow
▁Remember
▁crore
▁resource
▁Soon
▁beneath
▁backing
▁Laura
▁Mel
▁Pan
▁Hawaii
▁Brady
▁destruction
▁universities
▁blessed
▁fabric
▁mis
▁Use
ku
▁trains
▁intervention
á
▁Safety
▁notable
▁Bad
▁Wayne
ities
▁shake
▁toilet
bit
▁implemented
▁panic
▁arguing
▁celebrating
▁permit
▁attract
▁Oscar
19
▁Brandon
▁safely
▁prayers
▁quoted
▁Philippines
ow
▁Additionally
▁traveled
▁default
▁popularity
▁nominee
▁Adams
▁feeding
▁investing
▁blamed
▁impression
▁consistently
▁46
▁Keith
▁bat
▁rated
▁Wars
▁differently
▁keen
▁arguments
▁counties
▁disclosed
▁relatives
▁Treasury
win
▁Bi
▁maker
▁End
▁closest
▁egg
▁occasions
▁grandfather
▁precious
-12
▁associate
▁Village
▁longtime
▁dominated
▁forgot
▁Happy
▁jet
▁rank
▁10,
▁comic
▁instructions
▁sustainable
▁uncertainty
ru
▁happiness
▁Moreover
▁beaten
▁tongue
▁Poland
▁frequent
▁youngest
▁chase
▁Dakota
▁commented
▁smiling
▁Ya
▁nominated
▁holidays
▁ladies
▁alerts
▁Emma
▁Ram
▁external
let
▁labour
▁Evans
▁swim
▁Keep
▁Ham
▁infection
▁accompanied
▁Hunter
▁witnessed
▁Eventually
tz
▁stunning
▁Michelle
▁Empire
▁knock
▁drag
▁Murphy
▁efficiency
▁exists
▁Bishop
▁Inter
▁Lawrence
▁adjusted
▁gaming
▁friendship
▁highlights
very
▁practical
▁Warner
▁romance
▁institution
▁trucks
▁Franklin
▁sorts
▁Maine
▁Entertainment
▁2011.
▁Hurricane
ping
▁që
▁plea
▁refuse
tic
▁acted
▁persons
▁steal
▁30-
▁connections
▁pit
work
▁Silver
▁mo
▁Enter
ial
▁Orlando
▁stability
▁Billy
ong
▁Final
▁Ian
▁barrel
▁fleet
▁curious
▁flooding
▁(18
▁addiction
▁partly
▁controls
▁participating
▁exhibition
▁hearts
▁Ever
▁trash
▁butter
▁Alberta
▁Woods
▁rice
▁CIA
▁Tokyo
▁programming
▁blast
▁designs
▁minds
▁touchdowns
ence
▁dining
▁spaces
▁worn
▁virus
▁flu
▁Organization
▁discussing
▁stance
▁Trudeau
▁Capitol
ria
▁noon
▁excuse
▁mum
▁Greece
lu
▁administrative
▁Place
▁knees
tor
▁filling
▁greatly
▁Order
▁1.
▁trans
▁Cambridge
▁pen
▁View
▁64
▁Emily
▁shutdown
▁romantic
▁deployed
80
▁reverse
▁speculation
▁NO
▁protein
▁lit
▁Cole
▁Rio
▁Manhattan
▁Cat
▁collective
▁slip
▁tragedy
▁civilians
ability
▁diplomatic
▁buyers
▁flash
▁Protection
▁importantly
▁adopt
▁Mal
bi
ren
▁discrimination
▁burden
64
pro
▁GM
▁unemployment
▁competitors
‘
These
dale
▁pressed
▁fighter
▁march
▁Danny
▁delicious
▁Perry
▁Wild
▁reserve
▁categories
▁struggles
▁laundry
▁survival
▁Buffalo
▁tennis
▁Manager
▁generations
▁reward
▁commonly
ado
▁51
▁euro
▁naked
▁Jerusalem
▁Ash
▁signature
▁outdoor
▁picks
▁tap
▁computers
▁passage
▁liquid
▁operator
▁listened
▁households
▁Baby
▁staring
▁Palace
▁ingredients
▁disorder
▁ID
▁statistics
▁challenged
▁occupied
▁Carl
▁r
▁opt
12
▁72
mann
▁glasses
▁desert
▁submit
▁opener
-3
=
▁midfielder
▁checks
▁$15
▁Philip
▁procedures
▁experiencing
▁detained
▁alliance
▁Band
▁Venezuela
▁uncle
▁fitness
▁Securities
▁Col
▁contemporary
▁CO
▁Kings
▁Rangers
▁reforms
▁darkness
▁Mars
▁£1
▁succeed
▁Argentina
room
▁warming
▁grey
▁EPS
▁layer
▁outfit
▁medication
▁cock
▁nationwide
▁languages
▁ISIS
▁Has
▁fatal
▁Junior
▁commander
▁Ward
▁accusations
▁explosion
▁drives
▁arriving
▁developments
▁technique
▁Apparently
▁Han
▁interviewed
▁towns
▁ranging
tro
▁bite
▁triple
▁parade
▁ceiling
▁punishment
▁diseases
▁hiring
pur
▁meaningful
▁frozen
▁preparation
▁ridiculous
▁remarkable
▁Ted
▁mall
▁snap
▁donated
▁leather
▁hike
▁reliable
news
▁outlook
▁h
made
ula
▁attracted
▁Swiss
▁Sri
▁Alliance
▁overwhelming
tu
▁disabled
▁rushing
▁carpet
▁dated
IN
▁frustration
▁Morris
degree
▁Tar
▁Building
99
▁conviction
▁actively
▁chaos
▁nap
▁classroom
▁Hills
▁shareholders
▁removal
play
▁Within
looking
▁Plan
▁delivering
▁wise
▁Girl
▁copies
▁wet
▁Anti
▁pricing
▁Rome
▁formation
De
▁Rams
▁Watson
▁asylum
▁NATO
▁clinic
▁pile
ring
▁memorial
pre
▁clip
▁$100
▁communicate
▁principles
▁exports
▁ministers
▁Very
▁inquiry
▁misconduct
▁Alaska
▁politician
▁chip
▁tourists
scale
▁freshman
ella
▁golden
▁guidelines
▁voter
▁PA
▁ET
▁Hart
▁dynamic
▁Hot
▁bonus
▁creates
▁Doctor
▁engineer
▁dual
▁starter
▁Yu
▁outlets
▁Corps
▁charging
▁attendance
▁deny
▁Ja
▁assembly
▁soldier
▁foods
▁railway
▁elderly
-4
▁phrase
▁}
▁shipping
▁complained
▁stared
ph
▁handled
▁Speaker
▁coordinator
▁Should
▁utility
▁trigger
min
▁Therefore
▁pollution
▁Tu
▁database
▁rocks
▁calendar
▁spare
▁Doug
▁2007,
▁woods
▁shame
▁Oil
▁Federation
▁embrace
▁lasted
86
▁Christians
▁iconic
▁converted
▁waters
▁duo
▁strengthen
▁Ku
▁designated
▁telephone
ev
▁tribute
▁pan
▁temple
▁operational
▁enemies
▁throws
▁beta
set
▁Sox
▁initiatives
▁fucking
▁theatre
▁jumping
▁Blake
▁twelve
▁roots
▁prospects
▁Dark
▁Spirit
▁wages
▁Tower
▁revolution
▁crews
▁runner
▁Pete
▁philosophy
▁symbol
len
▁Early
▁defended
▁Too
cho
▁holdings
▁agriculture
▁IN
▁twin
▁retailers
▁Comey
new
low
▁Work
▁Intelligence
-5
▁stored
▁pound
▁None
▁Ex
▁Cor
▁bonds
▁architecture
▁beef
▁annually
▁satellite
▁Princess
▁advocates
-7
▁sectors
▁MPs
▁resignation
▁sole
▁nursing
ver
▁trapped
▁McCain
▁transactions
ising
▁adjust
ated
▁distributed
▁Switzerland
▁investigated
tion
▁Between
▁detention
▁topics
▁Madison
▁76
▁shy
▁lighting
▁artificial
zo
▁strip
68
▁tasks
▁opens
ette
▁Coach
▁Quebec
▁mph
▁FA
▁Ave
▁wash
▁mortgage
▁meets
▁$8
▁Halloween
▁highlighted
ata
▁theft
▁depends
▁Marshall
▁Sessions
▁component
▁transit
▁Video
▁tourism
▁maintaining
▁displayed
▁58
▁basement
▁beloved
▁Todd
▁directors
▁healing
▁travelling
▁Roberts
▁Penn
iz
17
▁wealthy
▁belong
▁constructed
ins
▁praise
▁beliefs
▁Morning
▁meters
▁57
▁stating
▁thirty
On
▁Malaysia
du
▁corn
▁earning
▁innovative
▁uniform
sch
▁Connecticut
▁eager
▁explaining
▁tensions
▁10,000
▁euros
▁Castle
▁sin
king
▁helicopter
▁virtually
▁makeup
Getty
▁input
▁120
water
▁upgrade
▁Mumbai
▁Related
▁provision
▁Magic
▁choosing
Man
▁burst
▁FREE
wan
70
▁electoral
▁1999
▁sufficient
▁Pope
▁Arthur
▁Freedom
▁Euro
▁moderate
▁globe
▁pa
▁escaped
▁$7
▁collapsed
▁Puerto
▁24-
▁Xi
▁consists
▁democratic
▁legally
15
▁dishes
▁confusion
kar
▁carrier
▁Indonesia
▁Johnny
▁senator
▁jeans
▁gray
▁Amendment
La
▁amongst
ium
▁prisoners
▁Milwaukee
▁Web
▁employers
▁headlines
▁ambassador
▁wire
▁violations
▁extraordinary
▁chamber
▁specialist
▁printed
ile
▁Ra
▁Par
▁prosecution
▁ensuring
▁ugly
under
▁transformation
▁Jessica
▁sparked
▁acres
▁Fred
▁difficulty
▁silly
▁Around
▁execution
▁Sh
▁15-
▁parked
▁reveals
▁dominant
▁Terry
▁1.5
With
▁settings
▁>
▁Nathan
▁Third
People
▁Seven
▁Ratings
▁600
▁Want
▁op
▁Run
▁advocate
▁tunnel
ix
▁progressive
▁tremendous
▁pose
▁literature
▁cheaper
▁classified
▁root
▁samples
ama
▁humanity
▁laptop
▁Records
▁subjects
▁ethnic
▁appearing
▁lists
▁2010.
▁scope
▁Asked
▁integrated
▁Model
▁convention
▁judgment
▁Zacks
▁usage
▁framework
▁250
▁principle
▁sum
▁Turner
▁viewing
▁bio
▁teens
▁tension
▁Arkansas
ff
11
▁boots
AM
▁logo
5,000
▁Wi
▁brave
▁meanwhile
▁18-
▁flip
▁reads
▁bother
▁Easter
▁anytime
▁Analysis
▁campaigns
▁overtime
▁wishes
▁fastest
▁vocal
including
▁Gar
▁
▁Albert
▁85
▁math
▁teenage
ap
▁grace
▁tune
▁Barbara
▁Independent
▁Angel
▁Dis
▁sword
▁routes
▁arena
▁directions
rin
.00
par
▁confirmation
▁Child
▁Using
▁Commerce
▁requirement
▁stroke
▁agricultural
▁legitimate
▁thrilled
▁Harvard
▁dealt
▁imports
Con
▁approve
▁trials
▁qualify
▁Bal
▁heritage
▁reminder
▁Sha
▁notion
▁cookie
▁enhance
▁boards
▁ni
▁Marvel
▁Members
▁chips
▁quote
nan
ER
▁sections
▁Theresa
Well
▁59
▁Cincinnati
yan
▁Due
▁Nu
two
rich
▁strict
▁transgender
▁rocket
▁Along
iya
▁Karen
▁demonstrated
▁Rich
▁Netherlands
▁speakers
▁questioning
▁politically
▁robust
▁Getty
▁Bears
yn
▁instant
▁habit
▁Chase
▁export
har
▁removing
▁Digital
▁basket
-2
▁Assistant
▁ya
▁parks
▁surge
▁origin
▁grave
▁hated
▁fuck
▁53
▁Add
▁survivors
▁Indians
▁Chapter
▁Smart
▁responding
▁Farm
▁Neil
▁Son
▁tables
▁Ca
▁branches
istic
▁underway
yo
▁Peace
▁concerning
61
▁Ver
▁1998
▁ankle
▁accuracy
▁<
▁preserve
▁reception
▁instantly
▁66
▁civilian
▁auction
▁Fe
▁array
▁placing
▁bare
▁foster
▁install
▁gradually
▁Friends
mail
▁deemed
▁reply
▁Based
▁median
wide
ky
▁Sar
▁bands
▁restore
▁centuries
▁eliminate
▁blanket
▁Further
▁operators
ira
▁54
▁crop
▁ranking
▁Could
▁launching
▁Jets
▁Calif
▁Nancy
▁genetic
▁Ga
▁(3
▁shed
▁tweets
▁dish
▁segments
▁pension
▁courage
▁Juan
▁militants
▁Si
▁motivated
▁inch
▁una
▁Dead
▁tale
▁bottles
▁afterwards
▁Sara
▁accepting
▁devastating
▁engines
▁Chuck
▁insight
▁Whatever
▁marry
▁dig
▁attorneys
▁partially
▁99
▁Shares
▁creature
▁compare
▁Ty
▁Jong
▁reviewed
ai
▁unfortunately
-8
▁Saints
▁wireless
▁WWE
▁reflected
▁Heart
▁Oliver
▁2,000
▁laying
>
▁churches
▁Share
▁Raiders
▁approaching
▁Mason
▁67
▁z
▁volatility
▁collecting
key
▁tenure
▁relax
▁Samuel
▁Currently
▁Auto
▁Think
world
▁Thailand
▁composed
▁Neither
▁recommendation
ich
tar
▁Pen
▁isolated
▁Gas
▁Gray
▁po
▁subscription
▁requiring
01
▁Robin
▁Technologies
▁Lakers
▁candy
▁fires
▁Bel
ably
▁climbing
▁accomplished
▁legend
▁lined
▁(4
from
ari
▁Marcus
▁hopeful
▁senators
▁Brazilian
now
▁Section
▁Low
▁grief
▁underground
▁Ju
market
▁Hopefully
▁measured
▁worship
▁Carlos
▁95
ach
▁whereas
▁Index
▁closure
▁sauce
▁replacing
▁tourist
▁cave
▁bath
▁IS
uar
▁Hal
ric
▁Bradley
16
▁integrity
▁sink
▁agreements
▁marathon
▁Tampa
az
▁financing
ena
ero
▁Fame
▁quarters
▁catching
▁addressing
▁cancelled
▁upside
ud
▁Flynn
▁striker
ning
▁retain
▁Sport
▁cyber
▁seeks
Don
▁productive
▁keys
▁wished
▁invasion
▁Tommy
▁pin
▁YORK
▁foul
▁celebrity
▁Net
▁terrorists
▁Calgary
▁departments
▁delays
▁depend
▁metres
▁Dodgers
▁buses
▁Cha
▁bulk
▁shore
▁decrease
sex
▁robbery
some
sky
▁disclosure
1,
▁sometime
▁2006,
▁indication
▁preliminary
▁Benjamin
▁satisfied
▁shaking
▁athletic
▁pitcher
▁Tan
▁murdered
▁56
▁respective
▁Mail
▁humor
▁Guardian
▁Someone
▁Iraqi
▁lands
▁tent
▁Sal
▁der
▁Springs
-9
▁wings
profile
▁gorgeous
▁acid
▁Resources
▁Sony
▁siblings
▁monster
▁ERA
she
▁Age
LA
▁unprecedented
▁kingdom
▁gaining
▁Staff
▁Katie
▁shifted
▁enterprise
▁quest
▁cleaned
▁trusted
▁chairs
▁62
van
▁Almost
▁Nor
▁sentiment
▁Fisher
▁Death
▁mere
▁engaging
▁evolution
▁gently
▁firefighters
▁hug
▁urge
▁Hunt
▁genuine
▁formally
▁gallery
▁Limited
▁electrical
▁torture
▁piano
▁automatic
▁Got
▁boring
▁brick
▁Trans
▁publishing
▁discount
-20
▁Marie
▁Nashville
▁statue
▁sacrifice
▁Native
▁predict
▁Small
▁touching
▁wrap
profit
▁cabin
▁swept
▁FILE
▁à
▁intellectual
▁Store
▁Shah
▁sooner
54
▁proceedings
▁taxi
▁Rather
▁SC
▁representation
▁expertise
▁openly
▁bones
hr
▁Meghan
▁tens
Now
▁Mid
▁bi
▁abilities
▁honour
▁911
▁crown
▁awake
▁exhausted
▁Weather
▁suspicious
▁SA
66
▁donation
▁regret
▁Vladimir
▁Dublin
▁Daddy
▁sake
▁announcing
▁temporarily
▁conventional
▁approaches
▁occasional
▁Swedish
▁një
▁69
▁MS
▁harsh
▁worries
▁flesh
▁RELATED
ok
▁Mon
▁boats
▁describing
▁€
▁doubled
▁arranged
top
▁demonstrate
▁creatures
▁underlying
▁stole
▁photographs
New
▁Upon
▁Partners
▁racism
▁bug
▁inform
▁unveiled
▁Taiwan
▁Spencer
▁withdrawal
▁nonprofit
▁mothers
▁penalties
▁Barry
▁$50
▁relation
▁borders
rie
▁Snow
▁mud
▁stranger
▁resume
▁Walmart
▁heels
▁faculty
our
▁anonymous
▁patch
▁parliamentary
▁snapped
place
▁Fu
▁True
▁discipline
▁integration
ius
▁Harrison
▁wisdom
▁wildlife
▁heaven
▁refugee
▁whilst
▁Drew
ide
▁emotion
cy
▁exploring
▁(5
▁Investors
▁villages
ros
▁define
ever
▁disappointing
▁2009.
care
▁pump
▁mutual
▁besides
▁booked
▁Afghan
Why
▁edit
ue
▁acknowledge
▁Dar
▁constitution
left
▁tender
▁pour
▁Rico
▁sweat
▁Sorry
▁Kenya
▁AFP
friendly
▁purple
▁cruise
box
▁Overall
▁Cabinet
▁Lucas
▁weighed
pi
75
▁Tonight
ida
▁caring
only
▁matching
▁Wa
▁blew
13
▁rental
▁slammed
▁genre
▁Room
▁existed
▁$9
▁lowered
▁brutal
▁span
▁Storm
▁Pence
▁Ashley
▁Temple
▁Ne
▁considerable
lock
rate
▁Ru
▁Columbus
79
▁compromise
▁Communications
part
▁deciding
▁£
▁Nigerian
▁grid
▁Gaza
▁breach
▁acquire
▁trauma
▁Actually
▁crap
▁Really
▁CA
▁awkward
▁Page
▁Ice
▁Zimbabwe
▁interim
ble
▁scientist
ika
▁sang
was
▁stepping
▁Studies
▁mentally
▁leaned
▁posed
▁(“
▁Ci
▁Rod
▁transmission
▁Environmental
ett
▁peers
▁pitched
▁Students
▁Harper
▁interaction
▁couples
gate
▁valid
▁Championships
▁61
▁distinct
▁PS
▁Broadway
▁Birmingham
▁resist
▁ski
income
▁Hell
▁imagined
▁verdict
▁spectrum
▁mechanism
▁forum
▁releasing
25
14
▁clash
▁Youth
▁Transportation
▁screening
▁closet
▁bold
▁marine
▁Yankees
▁Officers
▁neutral
ati
▁Er
▁surprisingly
▁revealing
▁Musk
▁Belgium
▁manufacturer
▁sh
▁castle
▁Fi
ery
iness
▁equipped
view
2,
▁Cu
▁treating
▁Natural
▁optimistic
▁juice
▁nurses
▁Intel
▁Che
▁flower
▁Prior
▁vegetables
MP
-6
▁Brett
CA
▁Airlines
▁diagnosis
▁Dow
▁makers
▁bay
ot
▁runners
▁meantime
▁16-
▁import
▁addresses
tel
▁camps
quarter
▁compliance
▁Yemen
▁soup
▁credits
▁modest
▁Crime
book
▁react
▁2-1
▁63
▁desperately
▁commissioner
▁focuses
▁Dick
▁tactics
mile
▁counting
▁5-
▁arrangements
▁complain
▁Representatives
▁purchases
▁goodbye
uri
ups
val
bn
▁Bobby
af
▁influenced
▁iOS
▁×
ston
there
▁intersection
▁Kent
row
Yes
▁underneath
▁$12
▁Unit
▁brush
▁Canadians
IT
▁6-
ken
▁starring
▁800
▁Oxford
▁priest
▁Dennis
▁Bear
▁DJ
▁1930
▁blocking
▁Boeing
lon
▁occurs
▁editing
▁Standard
▁breathe
▁Side
▁Knight
▁Ro
▁guilt
▁lets
▁drone
▁invite
▁Qatar
▁Logan
▁Furthermore
most
▁clouds
▁kilometers
▁Medicaid
▁relaxed
▁YOU
▁thanked
Fi
▁premier
AL
▁steep
▁Convention
▁Ad
▁Islands
this
▁Reed
▁indicates
▁Ta
▁14-
▁unions
page
▁imagination
▁backup
▁Alice
▁Emergency
▁Prize
▁1997
▁Code
▁restored
Not
▁interact
▁grip
▁rifle
▁Born
art
▁Front
▁locker
▁bases
▁organisations
▁workforce
ell
▁coastal
▁exploration
▁universal
▁formerly
▁wherever
▁toxic
ea
aj
▁humanitarian
▁bullet
▁exhibit
▁mi
▁Walter
▁missiles
▁supportive
▁Guy
▁HIV
▁corporations
▁în
▁Kar
▁Margaret
▁slot
▁Rogers
has
▁Stan
▁seeds
▁dragged
▁Medicine
▁dramatically
▁Bennett
▁urging
▁musicians
▁viral
▁VR
▁felony
▁workplace
▁robot
▁priorities
▁margins
▁sequence
▁Carr
▁blessing
▁barn
▁mandate
▁Falls
SC
▁Obviously
▁vet
Me
▁Find
▁finale
▁guaranteed
non
▁opted
An
▁pictured
ice
▁signals
▁acceptable
▁radar
Go
▁generous
▁shorter
▁gentle
▁engineers
▁hub
▁fancy
▁mask
▁magical
▁renewed
▁decides
▁resolved
▁pledged
▁perceived
▁patience
▁oxygen
▁realised
▁Classic
▁68
▁executed
▁Linda
▁laughter
▁leverage
ua
▁offseason
▁aunt
wi
▁Route
▁avoided
▁cow
89
▁Ti
▁File
ens
▁Systems
ons
▁lyrics
▁Iron
▁reserves
▁feared
▁equality
▁1996
▁municipal
founder
than
▁shoe
ag
▁Industry
▁collision
bound
▁info
▁patrol
▁succeeded
▁Bur
ries
▁Hu
▁firmly
▁withdraw
▁Blues
▁twist
gi
▁Trail
▁Polish
▁courses
▁mate
▁belly
▁
▁Abu
▁upstairs
▁73
▁Edwards
▁Costa
▁reflects
Just
stone
▁transparency
▁25-
▁Luckily
▁mysterious
▁searched
Pro
▁drought
▁admission
▁availability
▁triggered
▁Brussels
elle
▁bitter
DC
▁achievement
▁wounds
Mo
▁comeback
▁Girls
▁Defence
▁correctly
▁Phillips
▁switched
▁Mu
▁exclusively
▁steam
▁fever
▁Tell
▁drops
▁unfair
▁difficulties
▁photographer
▁punch
▁GDP
▁Cam
▁($1
▁pipe
▁washed
▁drafted
▁sponsored
▁disappointment
AC
▁praying
▁Macron
▁Visit
▁diabetes
▁errors
▁emphasis
▁kicking
▁Bryan
▁Win
▁aired
▁ambulance
▁Rev
▁Delta
▁suggestions
stein
ore
▁2-0
▁testified
▁Mission
tal
▁packages
▁Online
▁trafficking
▁tube
▁halt
▁arrests
▁privilege
tri
sha
▁upgraded
Le
▁rescued
▁kit
▁Pet
▁contributing
dan
▁Palm
ram
▁Norway
▁Ber
▁nerve
▁sophomore
▁Alpha
▁sporting
▁intelligent
▁pie
▁chronic
▁terminal
will
▁arrives
▁delighted
▁Cowboys
▁Ve
▁superior
▁Mill
▁bronze
good
▁Circuit
▁vessel
▁influential
▁vowed
▁Border
aka
▁organised
tech
▁regarded
▁farmer
▁2008.
▁Mad
▁shouted
▁distant
▁locally
▁excess
ification
▁Panthers
▁Wolf
▁Butler
▁Bio
▁citizenship
▁shooter
▁Region
▁pole
▁Shi
▁employer
▁passionate
▁flames
▁amendment
▁impose
del
3,
▁Fa
ala
▁EPA
▁exchanges
▁filming
▁chemicals
▁acquiring
ks
▁scrutiny
▁Garcia
▁Karl
▁im
▁Kan
MA
▁2005,
IC
cent
▁invitation
▁hardest
Ma
▁angle
▁qualifying
▁accounting
▁Ba
▁publisher
▁provisions
▁interference
ties
▁bull
▁boundaries
IS
▁insider
▁notably
81
century
▁Sch
▁workout
▁photograph
▁rebels
▁anxious
▁immune
▁Tax
▁Pentagon
list
▁acceptance
▁habits
▁heroes
kan
▁torn
▁tragic
▁shell
▁musician
▁conducting
▁migration
▁Victor
▁Industrial
▁Nazi
dar
▁bow
▁Salt
▁circuit
▁barrier
▁gene
lee
▁hook
▁donate
▁Sound
ator
▁Woman
▁fame
range
▁tissue
▁costume
▁outcomes
▁FIFA
▁responses
▁ambitious
▁crowded
▁instruments
▁arrangement
▁boot
▁lanes
▁premiere
▁Yorkshire
▁Dog
▁modified
!)
Be
▁floating
▁grants
▁Taliban
▁indicating
▁Wells
▁Kumar
▁explosive
▁AR
▁lobby
▁Dream
▁sheep
▁suggestion
▁Wow
▁pursuit
▁violated
▁Short
oh
▁Motor
▁lip
▁yelled
▁Reid
▁riders
▁soap
▁boosted
▁RBI
▁Za
▁parallel
▁appreciated
elect
▁powered
▁Angela
▁Mer
▁frustrating
21
▁eliminated
▁spreading
▁Forces
oni
▁wrist
▁rode
▁hurricane
▁repeal
▁inmates
▁islands
▁examined
▁Tournament
▁Richmond
▁barriers
just
▁es
▁dependent
▁frequency
▁memo
▁domain
▁porch
▁pretend
▁impacted
pin
▁pickup
nie
▁Register
▁opposing
▁audiences
bra
▁deputies
▁stealing
72
▁17-
Let
▁implications
▁Broncos
▁abused
▁cattle
▁males
▁Cardinals
su
▁lean
▁1995
▁refers
▁deserves
▁Wal
▁Montana
▁suspicion
▁phenomenon
▁Cuba
lar
▁Receive
▁NY
▁Yo
▁1940
▁newspapers
plus
▁determination
post
▁ally
▁hybrid
▁rumors
▁Pay
▁heal
fe
▁wrestling
▁visa
▁pastor
▁respected
▁Jefferson
rk
▁OR
▁solely
▁pressing
▁dressing
▁hotels
▁shocking
▁fights
▁Julie
▁Pop
nes
▁1994
▁Milan
▁concise
▁pe
▁endless
▁Holdings
▁perception
▁Mohammed
▁prevented
▁garbage
▁Ukrainian
▁2020.
▁teenagers
▁taxpayers
▁gaze
▁Military
▁spray
▁Election
▁Ger
▁Commonwealth
▁Glen
▁Secret
tan
92
▁offset
▁Bangladesh
bu
▁restricted
ative
▁worthy
▁2.5
▁queen
▁Angels
▁wheels
▁filmed
▁assaulted
ay
▁happily
▁shaped
▁MarketBeat
▁Off
▁purse
▁matched
Co
▁outbreak
▁Change
▁ma
▁Ah
▁Lauren
▁Hudson
▁Ki
team
▁recovering
▁goalkeeper
93
school
▁$25
▁spotlight
▁lengthy
▁condemned
▁judicial
▁Cold
▁Sanchez
▁kissed
▁Val
▁Target
▁victories
▁suitable
▁lease
▁athlete
▁muscles
speed
▁Design
▁Talk
▁trainer
▁Hughes
▁Colin
▁proceed
▁ju
sized
98
vis
▁Bond
▁strain
▁77
▁Golf
▁honored
▁battles
▁Jared
▁loyal
▁ST
▁rhetoric
▁planes
▁casual
29
▁cargo
▁spirits
▁Pakistani
▁safer
form
ep
▁bias
▁connecting
cap
nt
▁1992
▁calculated
▁successor
▁storms
▁finals
▁ultra
▁Liberty
▁completing
▁logic
▁71
▁rubber
▁minimal
cut
▁Hockey
▁appeals
▁jokes
▁Magazine
▁affecting
▁outlet
▁Kids
▁bitcoin
▁pub
▁Nintendo
▁bears
▁legislature
▁founding
lic
▁Access
▁Round
▁produces
▁Joshua
▁console
▁bloody
▁Bloomberg
▁Bull
▁concentration
▁inappropriate
▁ought
▁Russians
▁Ban
▁attributed
▁Bu
▁elaborate
▁educated
▁Carol
▁retreat
▁Cloud
▁les
▁biological
▁Travis
▁treatments
▁consultant
sey
▁BTC
News
▁devoted
▁washing
▁publish
▁eaten
▁affects
▁globally
esh
▁$11
▁examine
▁container
▁separation
▁Mobile
▁trio
▁transported
▁Den
▁installation
▁Source
▁Libya
▁psychological
▁Cancer
▁Helen
date
gun
▁regulators
▁las
▁immigrant
▁census
▁partial
▁pleasant
▁82
▁topped
▁displays
▁Eddie
▁OS
▁deer
▁Stanford
–19
shi
▁packaging
▁proceeds
▁colleague
iv
▁thread
▁fluid
▁sticking
▁transparent
▁delegation
▁Noah
▁critic
▁newest
▁slid
▁rugby
▁fifty
▁females
▁simultaneously
▁Inside
OR
▁honey
▁prescription
get
▁mandatory
▁retire
▁Derek
CC
▁spy
▁ME
▁accommodate
▁Say
▁pronounced
▁impacts
▁decreased
▁Stars
▁Email
▁Luis
▁diesel
▁conservation
▁teammate
▁relate
▁similarly
FA
▁preventing
49
ye
▁Foster
▁trap
▁Mitch
▁raises
▁fur
▁Mario
▁sued
▁retailer
▁inevitable
▁economies
maker
▁valley
▁boom
▁populations
OS
▁comply
person
▁yelling
▁Shaw
▁stretched
▁podcast
▁reaches
▁Merkel
▁strongest
▁hometown
▁Leonard
▁planted
▁Brooks
▁Gabriel
▁practically
▁aboard
▁bacteria
▁earthquake
▁countless
▁Total
▁Township
▁grandchildren
62
▁Claire
▁puck
▁apologize
95
▁counted
▁(6
▁productivity
▁10%
▁Hard
TM
▁1-0
▁cops
▁midst
NA
▁Leon
▁Box
▁Nebraska
▁2-
▁graduation
▁accomplish
▁charter
▁(7
3,000
▁motivation
CO
eh
▁Ri
▁courtesy
▁spectacular
responsibilities
▁AL
▁Beth
kg
▁rage
▁commentary
▁exam
▁conscious
▁Evan
▁Eli
▁businessman
▁battling
▁Ren
▁Baptist
▁averaged
▁Player
▁Future
gu
▁Money
ase
▁tobacco
▁epic
▁prince
▁Chamber
▁Chiefs
▁debris
▁Bus
▁realistic
▁Rodriguez
▁sunny
▁IV
▁governance
▁mature
46
▁Blood
▁significance
▁bombing
▁backyard
▁Powell
ST
7,000
▁missions
▁McConnell
▁Sacramento
48
▁Revolution
▁linebacker
▁deposit
▁rotation
▁aftermath
▁fundraising
▁offence
▁1920
65
▁poured
nu
▁vendors
ible
▁Zach
▁saves
▁pursuing
▁78
backed
▁LGBT
▁fitting
▁instrument
▁Palestinians
▁governing
▁examination
▁Sussex
▁fifteen
▁assess
▁leaked
▁Barr
▁criteria
▁monetary
▁altogether
bin
▁pale
▁scream
▁_
▁caution
▁understands
▁cab
▁Hampshire
▁Manafort
▁100,000
▁releases
▁Ze
▁cop
▁Urban
87
lie
▁cooked
▁Heritage
85
▁sheets
▁Sub
▁19-
▁Ruth
▁weakness
▁Dylan
▁worrying
▁polling
▁elementary
▁oppose
▁Fish
▁Nearly
▁slowed
▁glimpse
▁Electric
▁bubble
▁Song
▁Caribbean
▁Mercedes
28
ene
▁screens
97
▁adapt
oc
▁risen
▁Kane
▁Communist
white
▁awhile
▁setup
ped
▁infant
ona
▁farming
▁aviation
▁declaration
▁Edinburgh
▁flows
▁Nature
best
▁Bre
▁Potter
▁photography
mark
▁Non
hill
▁den
▁alike
▁nasty
▁balanced
▁icon
▁halftime
night
burg
▁intensity
▁twins
illa
▁glory
▁entertaining
▁Boys
▁Carson
▁coin
▁dose
shot
▁realise
▁101
▁Challenge
▁cared
▁singles
▁loop
▁appealing
▁Nobody
▁NHS
▁Bryant
▁detect
67
▁Memphis
▁bizarre
▁fascinating
▁offerings
▁coup
▁Je
‚
▁lens
96
▁Commons
▁powder
▁halfway
-15
22
▁interface
bank
worth
▁emotionally
▁Left
▁Thai
▁Bailey
▁conservatives
▁refusing
▁Romney
▁argues
▁fortunate
▁clearing
82
ü
▁Joel
▁jazz
-16
had
▁salad
▁dubbed
▁Wade
▁Patrol
▁Xbox
ese
Trump
RO
final
88
▁Jesse
DA
▁Pyongyang
▁volumes
▁hills
▁Dubai
▁reminds
▁stem
▁scratch
▁logged
▁evident
▁benchmark
▁3,000
▁rapper
▁circles
▁yoga
▁Ph
▁Fast
▁batteries
▁Type
-18
▁bass
▁rebel
▁hurting
▁Mas
▁northeast
▁vessels
▁reflection
▁SUV
51
▁Bernie
▁21-
▁lifting
IL
▁Lou
▁Ghana
▁Lin
▁Martinez
▁commissioned
▁believing
▁kinda
▁Lynch
▁resign
After
▁fits
▁overwhelmed
▁fossil
ington
53
▁folk
sell
▁unfortunate
▁insights
▁Ce
▁possibilities
▁Valentine
▁albums
▁goodness
▁inspection
▁Ge
▁batting
home
▁Fall
▁unnecessary
▁Fortunately
▁accidentally
▁Portugal
▁legendary
▁justify
via
▁Race
▁Rain
▁panels
▁recession
▁billions
▁earliest
▁sentences
▁negotiate
▁substitute
▁Especially
▁grandparents
▁Pass
6,000
▁Vincent
▁raid
▁opera
about
▁blown
eg
▁maps
▁applies
handed
▁licensed
▁PR
▁blonde
▁relieved
▁Toyota
▁identical
▁Cox
zy
▁Mall
While
▁uncertain
55
▁damaging
▁functional
▁mill
76
▁apology
▁1000
▁Edmonton
they
ela
▁advocacy
▁Casey
▁applying
yl
▁Netanyahu
▁Prosecutors
ID
olo
▁Vermont
▁Amanda
ele
▁Cap
▁shortage
▁radiation
▁weigh
▁Recently
ps
▁sigh
▁Indianapolis
▁demonstration
▁Hannah
▁Lopez
▁opioid
▁Pradesh
ding
▁Ana
▁annoying
▁yields
▁casting
▁Met
die
hit
▁securities
▁chasing
▁driveway
even
▁cheek
▁historically
▁Griffin
▁graphic
cu
▁anchor
▁Norman
▁ripped
▁Reagan
▁traders
▁contrary
type
▁warnings
▁1993
26
▁encountered
▁anonymity
▁bankruptcy
▁Troy
▁Steelers
▁Gun
ological
▁Sciences
▁vary
▁5,000
▁assisted
▁Lucy
▁blank
▁deployment
-17
▁pets
LY
▁Word
▁ON
▁researcher
▁reject
▁Chad
▁complaining
▁flexible
▁conversion
▁bleeding
zu
▁nga
cher
▁urgent
▁Julia
▁0.1
▁freeze
ale
▁100%
▁Kat
▁slower
▁trophy
▁HD
▁authorized
▁curve
▁Forum
▁Set
▁stabbed
▁trademark
▁dump
▁Riley
▁ver
▁hallway
▁Dame
▁tossed
fire
▁Kay
▁facilitate
▁blowing
▁belonged
▁propaganda
▁greeted
▁poetry
▁(8
▁compound
▁Brisbane
ward
2.
▁Together
27
▁plates
pictured
▁defendant
▁Support
▁Stop
▁22-
▁sexy
▁leak
▁manual
▁cult
▁dairy
▁2007.
TA
▁briefing
▁neighborhoods
47
▁Tor
▁FDA
▁novels
▁listing
▁Wind
▁rides
▁Mor
▁Investigators
▁shade
▁crowds
▁evolved
▁Elliott
▁rings
▁smartphones
▁relating
ban
▁consciousness
▁Transport
▁compelling
▁grows
▁conflicts
▁Drug
rated
▁Em
▁Players
▁tropical
▁Jen
▁heated
▁subtle
▁combine
▁needing
▁gut
▁secrets
▁Put
,500
▁Egyptian
▁farms
▁$30
▁deserved
▁guided
▁slave
▁convenience
▁revised
▁mixture
five
▁travelled
▁Julian
▁Shortly
▁transform
▁intend
▁Ab
▁priced
▁speeds
▁81
▁cope
24
▁beans
▁sells
▁flexibility
▁centres
▁convert
▁memorable
▁rope
▁criminals
▁forming
▁ca
▁declare
▁certificate
▁emerge
show
▁23-
▁interactions
▁Knights
▁Heat
▁Dear
▁jailed
ure
▁Mama
▁sizes
▁50%
▁cloth
sville
▁Full
▁enhanced
▁zoo
73
▁copper
▁championships
▁poorly
▁paintings
DS
▁Assad
▁Dawn
▁Cubs
▁proceeded
Some
▁catches
▁beds
▁Give
▁Steel
▁supporter
▁Brothers
▁curb
▁Isaac
▁dumb
▁Catherine
▁inclusion
▁dive
▁Weinstein
▁blogs
-14
▁horizon
▁barrels
▁merger
▁nuts
▁assignment
▁ward
▁enthusiasm
▁sore
▁nightmare
master
▁socks
▁2004,
▁Half
▁threshold
▁disturbing
▁chef
▁inventory
▁Beyond
▁Nicole
▁avoiding
▁Television
Ha
▁Insurance
▁accusing
▁flavor
▁Lebanon
▁cotton
"),
▁bearing
▁alien
din
ians
ob
▁Leeds
▁instances
▁tin
100
ris
▁Chan
▁apple
▁74
▁autonomous
▁Legislature
▁Either
▁Ahmed
▁iPad
▁initiated
Al
▁Des
▁rolls
▁freezing
▁automotive
▁Glenn
▁adequate
▁Baseball
▁firearms
gy
▁renewable
▁popped
05
▁pad
▁sequel
▁breakdown
tur
▁northwest
▁layers
▁density
▁transformed
▁Sweet
▁Taking
▁kilometres
▁characteristics
▁crops
▁tanks
PM
▁lighter
▁Link
▁mild
▁blaze
▁Heather
ending
▁traditionally
ES
09
▁disability
▁oven
tes
▁Uncle
▁entities
▁sentencing
▁lasting
▁waist
▁mouse
▁disagree
▁Connor
▁Vi
▁snake
▁cage
action
▁corrupt
▁spite
▁Medicare
▁Swift
▁shifting
▁mechanical
▁ghost
Ra
▁Brent
▁intentions
▁Agreement
ON
▁Railway
▁extending
▁competed
▁Against
▁preseason
second
▁artistic
▁Dam
▁Austria
▁Tre
▁Suddenly
ili
▁Base
▁Tomorrow
▁DO
MC
▁Universal
▁Tickets
▁assuming
▁controlling
▁bent
▁whispered
ified
▁Dragon
▁skirt
▁licensing
▁thoroughly
▁wars
▁cure
43
▁introducing
▁Montgomery
▁Getting
▁Porter
▁clue
▁pause
▁Obamacare
▁84
▁20%
▁Editor
▁Reports
▁accountable
▁severely
▁Bird
▁Summit
▁delight
▁TD
▁tri
▁clicking
▁swear
▁Liam
▁Card
▁Schools
▁continent
▁ALL
00
▁supposedly
▁Kam
ware
▁troubled
▁bra
32
▁Gandhi
4,000
▁pilots
▁plug
▁Sierra
▁Villa
▁offshore
▁Command
▁Curry
east
▁precisely
▁4-
▁Browns
▁seal
▁Ronald
▁mounted
▁Tiger
RC
▁shelf
▁Tree
▁mice
▁sealed
ical
▁postseason
▁DVD
▁embassy
▁protective
▁tackles
▁credited
▁scan
▁anthem
▁remainder
▁equities
▁Congressional
▁identification
▁tonnes
▁tends
▁headline
▁peer
▁Going
▁bounce
▁damages
▁fortune
▁contacts
▁Goldman
media
▁Muhammad
▁LP
▁Simpson
▁Contact
▁showcase
▁keyboard
▁Grey
oma
▁sneak
▁Buhari
▁FOR
ther
▁reactions
▁Common
▁motorcycle
File
▁permitted
▁colleges
▁permits
▁cancel
▁intimate
▁shirts
▁absent
▁valuation
▁certified
▁Spurs
ert
▁alternate
▁Herald
▁Kashmir
▁Leo
▁Myanmar
▁Nine
▁donors
▁Tottenham
▁lover
▁sensor
▁Agriculture
ora
▁excessive
▁Denmark
quality
▁Twenty
▁fails
wo
▁Para
▁scholarship
▁serial
▁lawn
card
▁Southeast
▁reign
▁skip
pper
▁entity
▁Sullivan
sk
▁lone
▁scattered
bed
▁Vo
▁technological
▁interpretation
▁mm
ima
▁screamed
▁Ferguson
▁translated
▁ethics
▁Vikings
▁technically
▁Metropolitan
▁Marco
▁contractor
▁apologized
▁pledge
bridge
▁classical
▁87
▁glanced
▁Sandy
▁exercises
▁averaging
RA
▁consulting
▁$13
▁celebrities
▁strangers
▁portrait
▁MA
▁establishing
▁unity
▁password
▁th
▁Punjab
▁identifying
▁Help
▁88
▁Ste
▁vaccine
▁appointments
▁Industries
▁internationally
▁Try
▁inspire
▁SP
▁Nevertheless
▁Nicholas
36
▁sophisticated
▁Lynn
▁sponsor
▁loyalty
▁holy
▁nearest
▁facial
▁wheelchair
▁Years
▁Rice
▁privately
8,000
▁oversight
▁adjacent
▁blockchain
▁alter
▁potatoes
▁aide
aba
▁sweeping
▁prevention
2,000
▁1991
35
▁companion
▁suits
▁theories
▁Sand
▁lazy
▁AG
▁Shu
member
▁AC
▁infected
▁cocaine
▁stuffed
▁warn
▁capability
▁Private
zer
▁79
▁hence
▁Berkeley
▁seniors
▁hyper
▁predecessor
Can
▁palm
07
mate
▁Newcastle
▁enabled
▁workshop
▁Bon
ido
▁Mourinho
▁appreciation
▁fierce
▁sensors
▁fabulous
▁Eagle
▁suburban
EL
▁Except
$1
▁Pelosi
▁continuous
▁raped
▁Writing
▁Fo
▁Ambassador
▁ho
▁reviewing
▁Kirk
ova
▁Seth
▁Daniels
▁flowing
▁Henderson
▁thumb
▁700
▁styles
▁skilled
being
▁Lt
SE
fo
▁1989
▁Throughout
▁consumed
▁sighed
▁bored
▁Revenue
▁Stay
▁Late
▁confronted
▁organ
▁stakeholders
▁orbit
▁downstairs
▁colored
▁patent
▁Huawei
▁flagship
bert
BA
▁smiles
▁List
ei
AS
▁startup
▁organize
▁trace
▁Shanghai
▁Consumer
52
▁literary
▁prayed
▁pays
▁draws
▁zones
▁fond
▁packing
▁prompting
▁physician
▁recreational
▁Companies
▁sadness
▁$14
▁declining
▁mega
▁nicely
▁navigate
▁flooded
▁indicator
▁Ralph
▁Ch
▁abandon
▁Hay
▁Wallace
▁cart
▁canceled
▁divisions
▁Kal
▁Kor
▁Rugby
▁Hernandez
▁j
▁Rescue
▁Manning
▁Housing
▁Owen
RE
▁aluminum
▁jewelry
ned
▁MVP
▁Drake
▁aging
▁Century
▁forgive
▁Kin
▁NSW
▁sheer
▁pockets
▁bombs
▁treats
▁Animal
▁Better
▁dare
56
▁animated
▁Triple
▁hint
▁Reading
▁Athletic
1,000
▁von
▁chin
lor
▁Imagine
▁Tribune
▁stays
▁notified
▁Lanka
▁disclose
▁sharply
▁86
▁Engineering
▁Indigenous
▁chains
▁divide
▁architect
▁Article
▁£2
▁bucket
▁Sin
▁indigenous
▁83
▁Relations
▁GMT
elli
ick
▁puppy
▁occupation
General
▁coins
▁Sheffield
▁recruiting
▁Crystal
lis
▁embarrassed
iti
▁Grove
▁chemistry
burn
▁13-
▁elevated
▁grades
▁tablet
▁pills
▁Mind
08
.50
▁receives
▁convenient
▁Modern
rat
▁clever
▁grin
▁kicks
▁treaty
▁nail
▁advisory
▁hurts
▁Dale
▁creator
▁southwest
▁boxing
ans
-11
▁licence
▁stones
ily
▁stack
▁negotiating
▁waking
▁belongs
ori
▁protocol
▁11-
▁Thunder
▁pitching
▁Kardashian
▁Kit
▁Interior
GA
▁charts
▁bothered
▁sticks
▁Deep
▁Ky
▁embarrassing
▁Draft
▁Norwegian
▁lung
▁Gil
▁jam
▁paperwork
▁ramp
pp
1.
▁exceptional
▁decorated
▁poem
▁Racing
е
tis
TS
ä
▁0.2
▁artwork
▁drill
▁documented
▁Honda
▁miracle
▁attraction
▁beneficial
▁Thomson
▁flags
▁Strong
▁Morrison
▁Greater
▁dam
▁repairs
▁sp
▁welcoming
▁blogging
/2
▁scare
▁manages
69
▁Training
aki
▁Lab
lam
▁glance
▁Harbor
▁protections
▁greenhouse
▁knocking
▁toddler
▁leaning
▁jaw
▁customs
tter
▁NC
ations
▁starred
▁indictment
▁traditions
▁Privacy
▁Czech
▁freely
▁Homeland
4,
▁bikes
▁financially
story
▁evaluate
LE
▁references
▁Environment
▁experiments
▁vertical
▁Coalition
▁MD
▁sweep
▁më
▁electronics
▁Cho
▁suppliers
put
▁UP
▁Leave
▁Delaware
dia
▁exchanged
▁Tea
▁regards
%
▁disappear
SA
▁Bella
▁Florence
▁Budget
▁Palmer
▁rang
▁Shane
MS
▁Kerry
▁TODAY
▁satisfaction
▁insane
pound
▁lawsuits
▁rebuild
▁distinction
Picture
tie
▁southeast
tier
var
▁UCLA
500
▁Louisville
lia
▁printing
▁nod
▁Lloyd
▁entries
▁heroin
▁Living
▁Holmes
▁3-0
▁sends
▁confrontation
▁Kai
78
▁marketplace
real
▁Rosa
▁terrified
▁Chancellor
▁grain
▁Abraham
▁Mat
▁firearm
dal
▁rebound
▁massacre
▁favorable
▁Trevor
▁desired
▁Holland
▁lacking
▁92
four
▁lonely
▁Andrea
▁stunned
▁showers
▁tub
▁Die
screen
▁Bee
▁bump
cer
▁economist
▁insists
▁DA
▁sandwich
▁2006.
mal
▁awaiting
▁Pra
▁angel
▁prohibited
▁nationally
▁accidents
ade
▁Wait
▁derived
▁Usually
▁shelves
ral
▁nest
▁Elementary
▁Rebecca
▁achieving
▁suburb
▁Stuart
▁Colombia
▁Reynolds
▁proportion
▁Richardson
des
▁corners
▁Gates
med
63
▁cheer
▁evaluation
▁Fan
▁40-
▁rankings
mel
▁Nova
▁adorable
▁oral
▁drilling
▁audit
▁creativity
▁Thankfully
▁subscribers
rick
By
▁Abe
▁ba
▁billionaire
▁advances
▁experimental
▁shifts
anna
Source
▁Aunt
eo
42
▁void
ali
▁Commander
▁ladder
▁Barnes
▁precise
▁Zone
▁Sudan
▁Walk
oo
▁Brock
▁suck
▁matchup
uch
▁cooler
▁Fine
-13
▁Earl
▁Seoul
▁watches
▁accessed
▁Masters
02
▁probation
▁medals
▁slowing
dor
▁texts
ben
91
▁themes
▁Diamond
▁slated
▁Sat
▁syndrome
▁overhaul
▁Shore
strong
▁limitations
▁hostile
▁Asset
▁neat
▁rhythm
44
▁semester
gel
▁recognised
▁Joy
▁$500
▁pig
▁competitions
▁Kurdish
▁surviving
ip
▁Globe
▁Var
▁vacuum
▁Olivia
▁poster
▁Jazz
▁cruel
▁Shop
▁Probably
▁jurisdiction
▁Tel
▁Peterson
▁Cuban
▁2000,
▁viable
▁hatred
cing
▁marking
▁subscribe
▁arguably
▁Adrian
▁Carroll
pen
▁palace
▁Pac
▁shield
▁McCarthy
▁gunman
▁bits
▁deliberately
“
▁Idaho
▁turkey
hen
cat
▁Brother
▁incumbent
sta
▁AD
▁wiped
aw
▁Starbucks
▁expectation
▁breakthrough
py
▁Gu
▁drank
▁revenge
▁respondents
▁dragon
▁consisted
▁hilarious
▁profession
▁dip
▁Packers
▁incorporated
nic
▁dug
▁essay
▁inaugural
▁gesture
▁amateur
▁lending
▁floors
ato
▁denies
▁composition
▁SE
▁helmet
▁clarity
9,
▁Tra
▁kills
▁Gallery
▁liver
▁Hello
▁lightning
▁referee
▁Op
▁neighboring
▁willingness
▁Pompeo
▁Windsor
tte
▁gig
▁backwards
Po
▁hunger
face
▁gloves
▁130
▁profitable
▁VA
away
▁shouting
▁eleven
▁tribe
▁Abdul
▁provinces
site
▁unhappy
▁Virgin
▁belonging
▁Hitler
▁Working
▁miserable
▁structural
▁Wang
uma
▁contractors
MO
▁Criminal
▁Kris
").
▁stakes
▁achievements
▁admits
▁costly
▁aides
▁timeline
▁endorsed
▁arch
▁sidewalk
▁trails
▁graphics
▁Fans
▁retained
▁Poor
▁tense
▁bloc
▁landmark
▁Les
23
▁Joint
uff
▁orientation
▁Immigration
▁0.5
▁Gro
▁forecasts
▁threaten
▁dried
▁amazed
west
iest
▁Campaign
▁consultation
▁observe
▁aiming
▁salaries
door
▁Lily
controlled
▁obligation
▁Studios
▁depressed
▁Honor
▁Ak
▁Sgt
▁unconscious
ches
39
▁94
▁lid
pt
AT
▁Eight
▁Duncan
▁fog
▁suite
▁expressing
▁1-
▁Newton
ub
▁hurry
lit
▁gates
▁dawn
▁implementing
▁persistent
cal
▁tightly
▁homicide
59
▁Member
▁killings
▁runway
▁BE
▁realm
▁sustain
▁Similarly
ib
▁Bro
▁realizing
▁permanently
▁reiterated
una
▁accounted
hander
his
▁arc
▁embedded
▁RCMP
EC
▁um
▁tu
▁edited
▁carriers
▁3-1
▁BMW
▁cinema
▁whoever
▁detected
▁deceased
qua
mu
▁starters
first
▁ignoring
▁Chile
▁tire
ets
94
▁organizers
▁outrage
▁Mack
▁embraced
▁strictly
▁Bulls
▁Wildlife
▁genes
rum
▁insiders
▁accountability
▁Average
▁fraction
▁porn
▁buttons
▁Miles
▁Prof
▁magazines
▁laser
▁enforce
▁Sue
33
▁harmful
▁Falcons
▁trim
▁Construction
▁fleeing
▁robots
▁concentrate
▁FM
▁observation
▁Seahawks
▁prop
▁backlash
▁thereby
CH
▁Guide
▁harvest
▁offences
▁appealed
▁Amber
▁Deal
▁gauge
ica
▁(10
▁Core
▁Southwest
▁defendants
▁HBO
AR
▁ports
▁Student
eau
▁nephew
▁Days
▁Welcome
▁Cash
▁LONDON
Ro
▁flee
▁MLS
▁2.0
▁lol
▁collar
▁Political
ão
▁neighbours
SP
▁Dana
log
▁Char
▁Case
▁Christine
▁rivers
▁Banks
▁programmes
▁bride
▁celebrations
▁(9
▁Mur
fish
▁venues
▁Melissa
▁preference
rock
▁finances
▁fireworks
57
▁2003,
▁affiliate
▁parish
74
▁casino
▁filter
▁Batman
▁Corbyn
ción
▁distracted
▁situated
▁hop
▁Linux
▁Workers
▁gotta
yer
▁triumph
ug
▁resting
▁Movement
size
▁handsome
▁Glasgow
▁counterparts
▁Quinn
▁Gibson
▁translation
▁UC
Ba
▁defenders
▁Blair
▁execute
▁homework
▁lungs
▁portrayed
▁hay
▁incentives
▁breeze
▁Bru
▁Works
▁warehouse
▁laughs
▁Canyon
ory
▁Lower
▁conclude
▁Step
▁bout
ante
▁exploded
▁grasp
▁Tai
▁undermine
▁Joey
▁empire
nce
58
▁Tory
▁baking
▁91
▁2001,
▁feat
▁magnitude
▁recipes
▁wheat
▁Com
▁renamed
▁concepts
▁NPR
▁passport
fully
▁Travel
▁3.5
▁Making
▁28-
▁1984
▁TR
▁Fri
▁Province
▁camping
weight
▁Advisors
▁Wing
cia
▁Cricket
▁gambling
▁lied
▁dumped
las
▁Gay
▁Mis
▁20,000
ico
án
▁Es
▁PE
▁Glass
▁është
▁duration
nia
▁tougher
▁disabilities
▁reluctant
▁municipality
▁blade
▁Sales
▁wallet
▁steadily
▁Stephanie
▁Dance
▁apartments
▁Diana
▁inauguration
▁travels
▁comparable
▁Seriously
▁digging
ash
▁Jeffrey
▁Grande
▁110
▁adventures
.0%
▁demonstrations
▁drones
iff
▁detective
sson
▁inspiring
▁180
May
▁weekends
▁bo
▁Ellis
tain
▁Unless
▁deleted
PL
▁interactive
▁physics
▁Ellen
▁cord
▁paused
▁Veterans
▁favorites
shirt
▁careers
▁EP
84
▁$16
Even
▁talents
nik
▁shine
▁er
▁considers
▁autism
▁$200
▁Megan
▁GPS
▁accent
▁logical
▁93
▁Chu
▁snack
▁Maduro
▁Tam
eri
▁aggravated
▁ce
▁tribal
▁criticised
oli
vers
▁Holly
71
▁instructed
▁lightly
▁mat
▁Clarke
▁spark
▁Pin
▁devastated
▁shorts
▁Zo
▁reunion
▁entrepreneurs
▁recruit
▁Block
▁fined
▁Liberals
▁waved
▁Grandma
▁crystal
▁za
▁Starting
▁fridge
▁accessories
TO
powered
▁97
▁subsidiary
▁Malcolm
▁caps
what
▁steering
▁economics
ami
Mr
06
▁restoration
▁booth
▁Min
▁1988
ming
▁Erdogan
ME
▁fist
dra
▁ko
▁projections
▁Operation
▁practicing
▁ritual
three
Pa
other
▁forty
▁crackdown
▁organizing
▁Vatican
wick
▁stripped
▁tooth
▁unaware
▁Trophy
▁servers
grade
▁Bristol
▁essence
app
▁handy
▁Shin
▁securing
▁rap
Na
▁nickname
▁differ
wen
▁lakh
▁indoor
▁sir
▁Christie
ila
▁Ruby
▁inability
▁qualities
▁imported
▁daddy
▁evacuation
▁minus
▁obligations
38
▁din
▁Self
▁yen
▁Markets
▁shootings
any
cus
▁adaptation
▁Start
▁cognitive
të
▁GP
▁eventual
▁Fourth
▁epidemic
▁Beast
▁cease
▁prestigious
▁Randy
▁ruin
▁Devils
▁Cookies
fu
▁fare
▁detectives
▁enables
#
▁wasted
▁Legal
▁Pe
gg
▁»
▁ordering
HS
▁Climate
▁hearings
▁evacuated
▁Mum
▁committing
▁secretly
▁PHOTO
onic
▁1986
▁mosque
▁heating
▁contents
▁junk
▁Peninsula
▁Emmanuel
Every
une
▁Kra
ranked
▁Boulevard
▁extract
▁layout
▁duck
▁curriculum
PC
▁thrust
▁treasure
fin
▁dignity
▁Nixon
▁puzzle
▁Sp
▁poses
▁Portuguese
▁blend
▁Rex
▁comparing
Mar
name
▁aisle
▁hi
▁twisted
▁1.2
▁Jam
▁designers
▁Salman
▁cousins
▁Edge
▁rider
bus
▁Fargo
gle
▁spun
▁pairs
▁frankly
▁bell
▁performers
such
▁incentive
▁cups
▁parenting
▁doubts
▁1987
far
▁Ethan
▁compiled
▁casualties
xi
▁Bin
▁Wil
▁dresses
▁Mills
▁united
▁agrees
pan
sie
▁Lance
▁regain
bal
▁52-
▁Researchers
▁corridor
▁Lagos
▁profound
od
▁comics
▁Northwest
▁poet
▁bugs
▁FOX
▁Bros
▁presenting
▁prey
▁testify
▁Outside
▁GT
also
▁fruits
anti
▁Emirates
▁Celtics
mit
▁comedian
▁Wonder
▁consequence
▁cracked
▁outright
▁98
▁nuk
▁holders
▁LeBron
gal
ening
▁alternatives
▁elevator
▁placement
▁Know
▁cemetery
risk
▁Pierre
▁happier
▁pitches
▁milestone
▁Andre
▁SS
▁Survey
mes
▁lesser
▁USB
,000
▁slavery
▁handing
▁processed
▁Belgian
▁il
▁airlines
▁stats
▁mu
▁Always
▁Mommy
▁Bernard
3.
sion
▁hood
▁outer
▁insist
▁Caroline
▁MO
▁Chargers
hard
▁Annie
▁violating
▁commitments
▁reflecting
▁Raj
▁overhead
▁Pearl
FC
ae
▁faithful
▁betting
▁toast
▁tendency
▁pork
▁89
av
▁intends
▁ballots
billion
▁$40
▁Tillerson
▁beast
▁massage
▁Foods
human
▁Ronaldo
▁hacking
▁USC
Brien
verse
▁displaced
▁Rodgers
▁glow
▁est
▁squeeze
have
▁grandson
▁compassion
▁dedication
▁enabling
▁Ring
▁destroying
wall
▁construct
▁Spa
77
▁bargain
▁pouring
▁diamond
standing
▁accordance
▁allegation
▁rub
▁pupils
eb
▁Need
▁140
▁horrific
▁unacceptable
▁anticipate
▁debuted
83
▁abusive
ute
▁deportation
▁confusing
▁teaches
▁Horse
ito
PO
▁staged
▁consume
▁militant
▁desktop
▁shoppers
▁Less
▁Sur
driven
where
▁clerk
▁cigarette
▁WA
▁Mets
▁tolerance
▁overly
▁Perez
SL
▁legislators
▁Jackie
meter
▁generating
▁Annual
▁genuinely
▁stint
▁historian
▁proving
▁leap
▁declaring
▁processor
▁columnist
▁Sta
▁forests
▁elbow
▁gasoline
▁Theater
▁Joan
▁calories
▁Silva
▁Tehran
▁disappearance
▁functioning
”)
hood
▁slim
▁Bri
ii
▁positioned
▁Ravens
▁spine
thirds
▁shallow
▁flown
▁playground
▁rip
cost
▁vacant
tha
ando
▁26-
▁denying
hole
▁shipped
▁edges
boy
▁dies
▁Heights
▁inbox
▁Sr
▁independently
34
▁96
▁Curtis
▁albeit
▁verse
▁MLB
ux
▁interrupted
š
▁adapted
▁rewards
▁sensation
ture
▁armor
▁outlined
ants
▁Cemetery
▁MI
▁relay
▁batch
▁inequality
▁Nasdaq
▁0.3
▁instructor
driving
▁partisan
▁locate
▁hooked
▁cum
▁ecosystem
take
▁likelihood
▁Grade
▁erupted
▁crushed
▁credentials
▁Mini
tive
▁buyer
▁Abbott
PD
▁shareholder
▁limiting
▁distress
minded
▁Weekly
▁Hy
▁thrive
▁haul
▁Welsh
▁Haven
▁Rush
Or
▁pond
▁kindness
▁supplied
▁bullying
▁attacker
▁considerably
▁pill
AF
▁2002,
▁Studio
ello
▁towel
▁diaper
▁ETF
▁currencies
▁Liz
▁Ros
uf
▁accommodation
▁Faith
▁sworn
▁rallied
▁forehead
SU
▁Durant
▁Hindu
▁Reply
▁Upper
▁Minneapolis
▁hammer
▁Sterling
7,
▁mentor
▁spinning
▁3-2
ging
▁Clean
▁stare
▁constituency
▁tires
▁disruption
▁doubles
...”
▁Der
▁Kremlin
ridge
▁heck
▁mansion
▁Imperial
▁laboratory
bel
sley
▁Ry
▁credible
▁backpack
▁tricky
▁denial
▁Chen
▁2005.
▁Dolphins
▁academy
▁containers
▁bicycle
▁gods
▁touches
▁Leicester
▁Ser
▁enrolled
▁pepper
▁Notre
▁colours
▁bend
jan
▁und
stock
▁weighing
▁Mai
▁ammunition
▁retiring
▁corporation
▁liability
pet
▁Clay
▁surrender
▁rounded
nor
}
▁Sol
▁Simmons
om
▁Beck
▁LOVE
▁statewide
▁bridges
▁SAN
▁lottery
DE
▁complications
▁tide
ox
▁drum
▁answering
▁quilt
ën
▁someday
▁advisor
▁verify
▁Alexa
â
nal
▁Stevens
▁27-
▁migrant
▁throne
▁automated
▁Derby
▁Westminster
vy
▁Voice
▁eclipse
▁Auburn
▁gardens
SH
zz
▁celebrates
▁medications
▁ideology
▁subsidies
▁CITY
▁Historic
▁scholars
Pacific
▁specialty
▁stiff
▁naval
▁Finals
▁surgeon
▁Bor
▁Gene
▁Jenny
▁Fear
ments
depth
▁Flight
▁anticipation
▁sized
▁Finland
▁separately
▁Pink
Who
▁deposits
▁Kushner
▁Markle
▁Il
▁tours
▁sunshine
▁IP
▁accurately
31
.75
▁Gal
▁Nate
▁spill
▁Hispanic
37
▁Enforcement
▁Disease
▁gaps
▁Kenny
▁fiber
▁ve
▁Cre
▁Fun
▁demo
▁Mediterranean
▁hackers
▁optimism
▁parole
▁Culture
▁shadows
wise
▁Jill
cor
▁jo
▁bipartisan
OC
court
nis
▁Brighton
▁comp
▁tan
ón
▁subway
▁drain
▁paths
▁convincing
▁Tamil
▁streams
▁Pitt
▁skull
▁Hand
▁territories
▁cautious
▁doll
▁Senators
▁Hat
PS
▁Corey
▁Champion
▁Below
▁(17
▁USD
▁raced
▁scenarios
▁behave
▁chill
▁Gi
ock
▁Echo
met
sburg
▁Broad
▁Zoo
▁Hamas
▁Arnold
▁dynamics
▁choir
▁Hungary
mor
▁fulfill
▁Winnipeg
▁Cosby
RT
▁possess
▁tricks
▁schemes
▁mob
▁economists
▁cement
CP
▁Inn
▁Matthews
▁Armed
▁fool
▁Sophie
▁credibility
after
▁loudly
▁manufactured
llo
▁banner
▁Arctic
▁cycling
▁Regardless
▁şi
▁sliding
▁rude
▁Ag
▁visitor
▁warmer
▁ICE
▁Inspector
▁Cavaliers
▁Thor
▁50-
▁mainland
▁Baldwin
▁weaker
▁cornerback
▁critically
▁prisoner
▁compact
▁float
▁failures
▁crush
▁WE
▁ri
▁appetite
▁litigation
▁crashing
Today
▁7-
▁LG
ien
▁Stra
▁collections
▁NDP
▁counterpart
▁lining
▁premises
▁Pick
iki
▁flies
▁vague
▁joins
▁relaxing
▁Bruins
▁incoming
▁poised
▁Ly
▁Mah
▁isolation
bury
▁stir
▁disc
▁joked
▁Colts
▁divorced
▁disorders
▁coupled
▁Nice
▁varied
CBS
8,
▁diving
▁partnerships
▁Enterprise
41
▁voluntary
▁intact
etti
ef
Hey
▁Fraser
▁Janet
▁wolf
▁GE
▁cultures
▁hiking
▁Java
▁rat
Ta
▁suburbs
lyn
▁explicitly
▁Reds
His
▁Munich
using
link
▁Spider
EN
▁donor
piece
Day
▁widow
mis
▁lu
▁namely
▁labels
order
▁Lang
▁locals
▁intensive
▁socialist
▁ethical
ees
China
▁vi
▁sacks
▁Perth
lot
▁airports
▁giants
▁farther
▁supermarket
▁fitted
▁Papa
▁vibrant
▁genius
▁Peru
▁Jenkins
▁bust
▁Wo
▁sadly
▁AFC
Un
▁Bulldogs
▁dangers
▁educate
rah
▁enters
▁beaches
▁Presidential
▁Conservatives
▁Duterte
▁autumn
▁Zuckerberg
▁Representative
9,000
▁Close
area
▁mobility
mos
▁kissing
▁Hor
Car
▁ensemble
base
▁Nike
▁recalls
▁Table
▁instruction
▁instrumental
▁seated
▁disposal
▁qui
▁directing
▁Verizon
▁Winston
▁che
▁Tur
▁atop
▁inherited
▁associates
▁Planning
▁clearance
▁Solutions
▁infamous
▁Double
ö
▁é
▁RT
▁altered
shaped
▁revolutionary
▁cheating
aya
fall
▁concentrated
▁delivers
▁gratitude
hin
▁railroad
ions
osa
▁Books
▁contested
▁computing
▁explicit
▁afterward
▁swap
▁Universe
▁renowned
▁merit
▁winger
▁presumably
▁inclusive
▁Panama
▁wishing
▁Christianity
▁detection
▁Gate
▁scrap
From
▁Stein
▁revelation
gue
▁humble
hop
▁Emperor
▁sacred
▁purely
commerce
▁voiced
▁Nissan
▁Chip
▁Jacksonville
▁seasonal
▁Flash
▁conclusions
▁lacked
how
El
▁rejection
sur
▁recipient
▁beautifully
▁charm
▁LED
▁skies
▁ferry
▁Update
▁poison
▁QB
▁measuring
▁Silicon
▁rented
▁weekday
.25
▁verbal
▁employ
▁therapist
▁cigarettes
▁trunk
fold
▁Customs
▁routinely
▁bilateral
▁Bachelor
▁thorough
▁Frederick
▁lovers
▁DE
▁Yahoo
▁Performance
▁pedestrian
▁habitat
▁grabbing
▁hack
▁invisible
▁advantages
▁Range
200
▁offenders
▁submission
▁maintains
▁Growth
▁Raymond
▁cheeks
▁needle
▁tuned
tle
▁homer
▁Horn
TC
▁lobbying
▁Bit
▁obstacles
▁noble
▁sponsors
▁dull
▁1985
03
▁Heaven
▁scent
generation
▁immense
▁remembering
▁Made
▁administrator
avi
▁Ground
▁graduating
▁concerts
▁bitch
▁colorful
▁Often
▁endure
▁intake
VA
▁CT
▁courtroom
▁withdrew
▁dock
▁Ob
▁mono
▁kidney
▁superstar
▁dominate
▁Martha
▁portal
▁Sharon
▁Coming
NC
▁crawl
▁$18
▁pharmaceutical
▁Gregory
▁Residents
front
▁infections
▁restrict
▁Gor
▁presently
▁Armstrong
ës
▁HE
▁authentic
▁ser
oon
▁dash
▁mindset
stop
▁Burns
▁Mag
▁Alzheimer
▁Confederate
▁Lan
▁Zen
▁objectives
space
▁Messi
▁Author
▁slaves
ering
▁Match
nick
▁notorious
▁owe
▁nutrition
▁echoed
▁Coleman
▁rainfall
▁Sharks
▁environments
▁settling
gas
▁Mick
▁broadly
▁Chair
▁Gilbert
▁Ivan
▁jersey
▁Titans
tch
▁leagues
ec
6,
▁demon
▁minorities
eu
▁promptly
▁1983
▁enjoyable
▁bowling
▁Eye
core
▁surveyed
▁pillow
▁Pu
▁accelerate
▁Vol
▁Rand
▁issuing
▁Brook
▁neighbourhood
▁terrifying
▁misleading
oz
▁Meyer
▁li
▁dire
ual
▁Walsh
▁Pictures
▁speeches
▁va
▁Save
▁assumptions
▁cows
▁gi
▁relied
makers
▁taxpayer
▁Sho
▁1979
▁turnout
▁soundtrack
▁brains
▁terrain
▁justified
▁Holiday
SO
▁Face
▁centered
▁Hugh
▁confront
▁dealers
▁quotes
▁substantially
▁expose
▁fictional
bri
▁shrugged
▁cryptocurrency
bat
▁resumed
▁corresponding
▁endured
▁elder
nell
▁undergo
▁shuttle
▁MY
▁Micro
▁smashed
Lo
▁enjoys
▁switching
▁borrowing
▁umbrella
▁wrongdoing
▁preview
▁Mir
▁disputes
▁deploy
▁Cody
▁GO
ema
imi
▁«
gov
▁vintage
▁Bannon
▁scorer
▁Investigation
▁160
▁HR
▁pursued
▁$100,000
▁Crawford
▁Independence
▁1982
▁specialized
▁MMA
▁tucked
▁volatile
yu
▁goalie
▁leaf
▁broadcaster
▁liquor
▁descent
▁stumbled
HA
▁wears
▁potato
▁intentionally
▁4,000
▁unlimited
▁applicants
▁defeating
▁roller
▁Mont
IM
▁bounced
▁kidnapping
▁utilities
▁350
▁Hawks
WA
▁bureau
▁uncovered
▁min
mus
▁selfish
▁Rail
▁sucked
▁Strip
▁obsessed
dom
lla
▁occurring
▁graduates
▁rational
▁Mann
▁regulator
▁breasts
▁searches
▁debates
▁LOL
▁bullets
▁devil
▁consisting
▁invented
▁clan
▁Fin
▁monument
read
▁Adelaide
▁wreck
▁Mus
▁commodity
▁Mari
▁Additional
▁Victorian
▁Judiciary
▁tier
ew
▁assessed
▁loads
▁chickens
▁fixing
▁injection
▁rises
▁Brand
▁recognise
▁Number
BC
▁tuition
▁binding
▁ER
▁Professional
▁Med
▁logistics
▁borrow
▁useless
▁Estate
▁Branch
▁alley
▁Fool
zen
▁alleges
▁recycling
▁metro
-21
▁complexity
▁Prix
▁smallest
▁observations
▁Sebastian
ava
▁Shadow
▁annoyed
▁practiced
▁Schumer
▁forthcoming
matic
▁disputed
▁accord
▁Dee
▁Lok
▁niece
▁Philippine
▁Interstate
▁paired
▁advancing
▁Gonzalez
▁advisers
▁attendees
▁skeptical
▁psychology
▁solidarity
▁yarn
▁servants
▁Az
▁Reddit
MB
Yeah
▁Ultimately
▁Erin
▁snacks
eli
▁ballistic
▁PlayStation
Good
oi
▁Ji
▁evolve
▁Fashion
▁VI
▁Ghost
▁0.8
▁tournaments
▁tracked
▁’”
▁8-
▁curse
▁Ny
chen
▁ch
▁filings
▁shark
▁scam
▁rehab
▁capitalization
▁Danish
▁Originally
▁Ask
▁Circle
CL
▁bush
▁assumption
▁Current
▁Pri
▁neo
▁nominations
▁50,000
▁variable
enberg
▁clashes
▁dominance
▁Moving
▁Truth
▁Nar
▁buzz
▁cooling
▁Edition
Of
▁lounge
Black
▁recruitment
▁assembled
▁supervisor
▁ego
CE
▁glorious
▁folded
▁freak
finals
▁Critics
▁Hundreds
▁warmth
▁mechanisms
▁fines
lands
▁Dun
▁dealer
▁faint
▁Jar
▁licenses
DP
▁Pokemon
▁gravity
TR
▁integrate
▁murders
▁tattoo
▁messaging
▁stressful
▁distinctive
▁refuses
▁dental
▁contributor
kov
▁smoothly
▁Robertson
▁spends
▁magnetic
ites
▁Medal
▁colonial
▁suited
▁observers
▁ng
▁lion
▁32-
▁touring
▁Aside
▁recruited
▁Opera
▁baked
sic
▁sank
▁Marathon
mont
▁Maple
aging
▁mercy
▁inviting
▁Luther
pointer
▁FCC
too
equity
▁labeled
▁Kil
▁Mun
▁Gill
ET
▁ranch
▁launches
▁punched
▁Cro
▁preparations
▁Nat
▁analytics
▁encouragement
government
▁Burke
▁connectivity
?)
▁reversed
▁Davidson
▁refusal
ú
▁cooperate
▁Dal
▁unchanged
▁1942
▁slice
▁messy
▁IBM
▁Lieutenant
▁Roth
▁Buck
▁explored
▁prizes
und
▁Molly
▁priests
▁chased
▁IRS
▁pulls
▁Au
▁honors
▁Maggie
▁delicate
▁nationalist
▁convictions
AD
▁Bat
▁turnover
▁tee
▁$10,000
iri
®
▁navy
▁gown
br
▁5%
▁effectiveness
▁#1
pointers
▁shining
▁Manuel
▁Rai
▁publications
▁Sharma
▁recipients
▁enthusiastic
▁Study
▁backdrop
▁$17
running
▁theaters
▁Cut
▁supplier
▁Lost
kel
tax
▁Wilder
▁2020,
▁shapes
held
▁undergoing
▁tribes
▁Rivers
▁rehabilitation
▁civic
▁owed
▁header
▁downward
▁Monica
▁sofa
▁Yan
▁Cy
▁Carrie
▁terribly
store
stage
▁Latest
▁coached
▁NASCAR
▁Opposition
▁lawmaker
group
hal
▁Walking
▁1,500
▁Pretty
▁costumes
▁martial
mb
▁punished
▁flank
breaking
▁Erik
▁DH
▁flipped
▁animation
▁factories
▁Planet
bb
hy
▁Nam
▁boarding
▁Holocaust
▁Jail
cast
▁spouse
▁furious
▁pee
▁Hopkins
ago
going
▁pas
uz
▁varying
▁travelers
president
▁Actor
▁Ur
President
▁disrupt
West
▁Soccer
▁Sister
▁generic
nk
stra
OK
▁unsure
▁Switch
▁breed
▁McGregor
▁Wyoming
▁Joyce
▁boundary
ras
▁Omar
▁Rad
▁headache
▁finishes
.99
▁advise
▁Ol
▁Roll
▁Louise
▁podium
▁Shawn
▁assassination
▁29-
▁administrators
ō
▁buddy
▁tapped
▁fatally
▁Gre
▁Operations
▁alleging
▁Finn
▁Detective
IP
▁consistency
▁sanctuary
▁subjected
▁Haley
▁contracted
▁Lion
▁outdoors
▁absorb
pping
▁Tro
▁unlock
▁exterior
mat
▁stamp
eta
▁rallies
▁Pur
▁shout
cio
▁Diane
▁diplomats
▁UAE
à
▁Gardens
▁Rhode
selling
rus
▁functionality
▁Donna
▁masses
▁Initiative
third
nar
▁certification
ient
rt
▁jets
▁ruined
og
▁Search
▁algorithm
▁Narendra
mp
▁Apart
▁jack
▁sewing
▁translate
▁Majority
°
▁meter
▁Freeman
▁marched
▁stove
▁spacecraft
▁problematic
TE
▁Hold
▁continuously
▁mounting
▁Mt
▁lucrative
▁determining
ā
▁shelters
Ex
▁NSA
▁Pine
▁Superior
▁Orthodox
ign
▁calculations
▁ashamed
pers
▁naming
▁fold
▁solved
▁Hans
4.
▁interfere
▁wickets
▁healthier
▁softly
▁emailed
▁elect
▁Elder
▁Tucker
▁jealous
▁Kurt
▁deliberate
NO
▁Rocky
▁utterly
▁7:30
▁2004.
▁settlements
▁admitting
Vi
▁crashes
▁risky
▁Biden
eth
▁Darren
▁tipped
▁Ferrari
cc
▁faded
▁0.4
▁Slam
▁Sally
▁Colonel
▁cough
▁reasonably
▁delegates
▁feminist
bad
▁dessert
Because
▁RAM
▁sidelines
▁futures
▁fa
▁flour
▁capped
source
▁tenants
▁Standing
▁Sim
▁exploit
▁Fer
▁hey
horn
OM
▁nerves
▁Jess
▁Pirates
building
▁Saskatchewan
▁negotiated
▁chatting
USA
ska
TH
ique
▁lecture
▁Shannon
▁Said
▁RE
chan
▁motive
phone
▁preserved
▁confessed
▁LI
▁clay
ui
▁Aviation
▁ro
▁Otherwise
▁tasked
ste
▁1.3
▁McG
ENT
▁particles
▁Geneva
▁civilization
▁imp
▁Formula
▁rested
▁fragile
▁stabbing
▁imminent
▁boycott
▁30%
▁Gross
uck
▁spike
▁Seeking
▁Record
John
▁Bills
▁Michel
▁Commercial
▁arrange
▁BP
▁ambition
▁sympathy
▁Isn
pal
▁Bra
▁mommy
▁boasts
▁cliff
▁fundraiser
inger
▁figuring
▁Naval
▁Walt
▁clause
▁leaks
▁Croatia
▁Berry
▁Belt
▁Analysts
▁affiliated
▁acquisitions
▁Latino
▁servant
▁beard
▁whip
▁nonetheless
▁Prevention
▁sack
ude
▁poly
▁Lots
▁quicker
▁wives
].
▁CR
▁aggression
iel
▁mock
▁HERE
▁Blog
▁dense
▁fried
▁encourages
▁360
▁dividends
▁princess
▁personalities
▁skating
▁networking
▁hats
▁Level
▁underwear
▁Istanbul
▁1967
▁soda
▁locks
▁hid
▁mold
▁quo
▁Irving
▁assure
▁documentation
▁homemade
▁departed
300
▁40%
uka
▁confidential
▁vegan
▁midfield
▁characterized
▁AS
▁Scientists
▁Reform
?’
▁Castro
▁physicians
▁admire
▁CM
UN
digit
▁towers
▁Parks
▁Fat
▁posing
acre
▁prohibit
▁poop
eye
▁surplus
▁Garrett
▁shiny
IA
▁125
▁recordings
▁Gardner
largest
▁cluster
▁fi
▁chapters
▁lethal
▁entrepreneur
Buy
▁Wu
▁finest
▁Nan
▁enterprises
▁tariff
EP
▁Patterson
▁unsuccessful
▁communist
specific
▁Bud
▁pics
▁inhabitants
▁Emmy
▁cares
▁Monte
dollar
▁persuade
▁signatures
▁Whit
through
▁upgrades
▁whatsoever
▁correspondent
▁slap
▁continually
▁stretching
▁Davies
▁underwent
▁overdose
▁hips
▁tales
▁libraries
▁broadband
▁prosperity
▁commands
▁Jun
wer
▁housed
▁strengthening
▁secular
▁Kerr
▁alright
▁Mich
▁nails
AA
▁Sachs
▁emphasized
▁freed
▁(12
▁attitudes
gin
▁tablets
▁witch
▁Details
▁watchdog
▁bang
▁Kara
NY
▁1958
▁Sel
▁Armenian
▁Syracuse
▁payout
▁punish
▁conceded
EE
▁Census
step
berry
▁surfaced
▁contender
▁0.6
▁canvas
▁curiosity
▁eliminating
▁pussy
04
▁famously
▁Moses
▁investigator
ters
▁dude
▁1968
▁Grammy
because
▁wa
▁remembers
▁Pride
▁prone
▁ordinance
▁cleaner
ple
▁sunlight
▁cafe
jen
▁Listen
▁Leslie
▁Everton
▁contention
▁competitor
▁positively
▁strategist
mph
▁Join
▁questionable
▁attackers
▁Superintendent
▁swung
when
▁affidavit
▁loses
▁rep
▁newer
▁Clemson
▁dentist
▁revival
pat
▁1972
▁bore
▁Indonesian
Ka
▁refuge
▁Nobel
▁hugged
▁outing
▁aggressively
▁CLOSE
▁Pedro
▁Initially
▁profiles
▁readily
▁airplane
▁Texans
▁Parish
▁thriller
▁portions
▁destinations
▁Charleston
▁sunset
▁PGA
▁picnic
▁lump
▁sur
▁Sugar
▁bless
word
▁Breaking
▁Sadly
▁norm
▁Everybody
▁Celtic
Your
▁Aid
▁́
wn
▁topping
city
▁undoubtedly
▁discharge
▁kidding
▁nu
▁Learn
▁API
▁caravan
▁Insider
▁forensic
▁activated
▁Liu
▁conditioning
▁intervene
▁Plant
▁Mine
power
▁Twin
▁Congo
▁Timothy
▁chunk
lay
▁Yale
▁distribute
gger
▁Name
▁aggregate
▁examining
sis
pad
▁necessity
▁bacon
▁regulate
▁extends
▁societies
▁packs
▁Title
5,
▁wipe
aries
▁burial
▁owing
▁Sabha
▁feast
square
▁pine
▁relies
▁Ducks
ify
▁liberty
▁1-1
rise
▁precedent
TER
▁Somehow
sar
▁Wagner
body
▁timely
▁Tara
▁35-
▁crisp
▁broker
▁charming
eng
▁survivor
▁spit
▁darker
▁Trek
▁inevitably
▁Franco
▁ft
ged
▁Clearly
▁insisting
è
▁Mountains
ego
adi
▁tying
OL
▁$1,000
▁pistol
▁Cost
▁Betty
▁Return
▁Pol
▁Leafs
▁PhD
▁Juventus
▁Yang
▁1999,
case
▁Khashoggi
▁stall
▁25%
ose
▁unbeaten
▁reacted
ander
▁Terms
▁1981
rous
isa
▁workshops
▁hubby
▁grandma
▁Lindsey
▁tally
▁juvenile
ching
▁rains
▁planting
▁publicity
▁predictions
▁relying
▁jungle
▁Natalie
▁committees
▁Wy
▁creek
▁shattered
▁olive
▁investigative
▁tab
▁banning
God
▁upward
sel
▁blogger
▁trailed
▁enacted
illo
▁baseman
▁Phase
▁polite
▁Phillip
▁traits
GO
▁Ay
▁NJ
funded
▁Safe
▁Clippers
▁Petroleum
▁$1.5
▁Lamb
▁Consider
▁Large
▁Alexis
family
▁allocated
▁Train
▁imprisonment
▁Myers
▁Austrian
ire
ill
▁Jenner
▁NYC
▁merchandise
▁branded
▁Wendy
▁Trinity
▁automation
▁Buddhist
ened
▁origins
▁ambitions
▁BB
iva
▁Briefs
▁Wimbledon
▁Telegraph
mas
▁transplant
▁Thousands
gh
hot
▁lieutenant
▁despair
▁Comp
▁newborn
isi
lat
▁judgement
▁Zi
▁Vienna
▁9/11
RP
aria
▁Bet
▁Select
▁neglect
▁16.
▁superhero
▁Kylie
▁Eden
▁como
▁mines
▁terrific
▁neighbouring
▁litter
brook
▁Statistics
▁intriguing
▁exceed
▁Rockets
▁Hassan
▁profitability
ific
▁trailing
▁performer
lli
▁decisive
▁nominees
▁satisfy
▁accordingly
▁Chapel
▁navigation
▁Ker
▁bosses
▁Harold
big
▁1978
▁machinery
▁Allah
▁receivers
▁Basically
▁NA
▁Advanced
▁01
▁Gan
▁salmon
awa
author
▁Queens
▁prototype
▁Healthcare
▁frames
kh
▁publishers
Are
▁1953
▁acute
▁Por
▁encounters
▁(16
aga
▁Lowe
▁Motors
▁Affordable
▁notification
▁wholesale
▁Advisory
hir
▁Charlottesville
▁Astros
▁Solar
▁gifted
▁0.7
ious
▁rewarded
tail
▁Deutsche
▁Arabic
▁flame
▁Soul
▁dismiss
▁mod
▁Lyon
match
▁Mohamed
▁fe
ré
▁Primary
▁thereafter
▁prompt
ving
▁Past
▁preferences
▁thoughtful
▁homeowners
▁Hayes
▁foreigners
▁Mohammad
▁mount
▁Pot
▁Bolton
▁lemon
▁LOS
▁Neu
▁Debbie
▁indicted
rio
▁oath
▁straightforward
▁EBITDA
▁straw
rr
▁designation
▁Fantasy
▁Springfield
▁statistical
▁endangered
▁adjustments
▁consuming
▁administered
▁sovereignty
▁unlawful
watch
▁kindergarten
CR
black
▁Wine
▁Cardinal
▁takeover
▁Million
▁applicable
▁Send
▁Northeast
▁Fifth
fan
▁Yellow
▁ku
▁Sad
▁­
▁narrowly
▁punt
▁Barrett
▁Conservation
▁tre
track
▁antibiotics
▁superintendent
▁Hol
▁Cool
▁ob
▁prescribed
▁IPO
March
aire
▁30,000
▁Kas
▁Roosevelt
▁speeding
▁enrollment
▁Ant
▁sacked
▁OPEC
▁Arc
▁Cathedral
▁LSU
▁dementia
▁1975
▁township
▁fuels
▁Learning
▁Rohingya
▁Mattis
▁catcher
▁Samantha
▁sailing
▁Task
mates
\\
▁beverage
▁1.4
▁pipes
▁fairy
▁loading
▁Mugabe
SB
▁groceries
▁prospective
▁predominantly
▁visibility
gra
▁Athens
▁1973
▁laps
itis
▁analyze
▁seating
▁midterm
▁meditation
▁Stage
▁Bang
IE
▁wander
▁Gavin
▁hugely
▁carved
aro
▁linking
▁divine
▁Form
▁pressures
▁surveys
self
▁campaigning
▁gentleman
▁composer
▁supervision
▁imposing
▁1976
great
▁barred
▁Roma
▁kidnapped
▁900
▁adjustment
▁mama
▁ti
▁stark
▁robbed
▁calculate
▁Subscribe
▁Were
▁polar
▁Anaheim
▁proposition
▁Rest
▁protesting
▁CBC
▁Worth
▁Beauty
▁Um
▁interceptions
▁Turn
▁Fellow
▁Federer
▁Lam
▁riot
▁Rd
▁MC
▁aerial
▁doorway
people
▁Macon
▁Ahmad
▁mortality
DO
hn
▁spiral
▁jar
▁rivalry
▁Multi
▁Sex
▁downhill
▁Thrones
▁Duchess
Where
▁Kenneth
▁wildly
bs
▁breeding
▁Partnership
▁vocals
▁fu
nen
▁cellphone
▁Jer
▁hydro
open
▁fixture
▁Mega
▁THIS
▁municipalities
anga
▁wool
▁Kur
▁charitable
may
▁flaws
▁hospitalized
ration
▁integral
▁Body
▁TE
▁turmoil
▁slam
▁accompanying
▁souls
▁affection
▁Boss
▁endorsement
▁Miguel
▁holder
][
té
▁ter
arm
▁weed
▁APC
▁clinics
▁replay
▁aesthetic
▁Few
▁codes
▁Patricia
▁Fleet
▁Paradise
▁Month
▁(20
▁govern
▁tolerate
▁Computer
▁Kid
▁THAT
wheel
▁disk
▁>>
▁elegant
▁socially
▁Bengal
▁Hence
OT
boat
▁Row
▁wrapping
▁Already
.15
▁Preston
seeded
fest
▁distraction
▁stretches
▁Seeing
▁complement
▁1900
▁obesity
▁transfers
Thank
▁unnamed
oy
▁solving
▁Wildcats
▁NEWS
uda
▁proudly
▁Uganda
▁distinguished
▁Trent
▁1974
▁Fran
bie
▁benefited
▁wanna
ole
▁Qualcomm
▁Zero
leading
▁Quick
▁mineral
ike
▁Luc
▁hailed
▁Forbes
▁controller
▁Turnbull
▁Midwest
▁Shan
▁blankets
▁Kemp
▁Oval
▁Romania
▁parameters
▁malicious
▁obsession
ERS
▁1.1
▁elevation
EA
▁sue
▁outreach
▁inadequate
.''
threatening
▁Palestine
▁Klein
▁destructive
▁delete
eva
▁moms
▁Shakespeare
unconstitutional
▁silk
▁Meet
▁Whenever
ación
▁Hub
▁pulse
▁cottage
▁transcript
wal
rian
▁tumor
▁Color
▁judged
bro
▁Cher
▁Pastor
▁Wings
▁Ranch
▁configuration
▁$60
▁merged
▁Bayern
▁Tina
▁spa
▁Chang
▁""
▁JavaScript
▁variation
▁Brendan
▁symbols
mmer
▁jurors
▁studios
▁turnovers
▁Rosen
▁spells
▁restructuring
▁Surrey
▁satisfying
sharing
▁au
▁outfits
anda
▁Islamist
▁waving
▁absurd
▁whistle
▁sexuality
SD
400
▁sovereign
▁circulation
▁convey
bee
▁rocked
▁compromised
▁recommends
yr
▁unanimously
▁Monroe
▁elephant
▁Host
▁Germans
MR
▁Socialist
▁creepy
▁pornography
▁Lightning
▁1963
▁disgusting
RI
▁blasted
▁Cindy
▁rocky
EM
▁interception
▁veto
▁midway
▁neighbour
▁Pixel
▁associations
▁Jays
▁monsters
▁1977
agh
▁gospel
▁Coffee
▁capitalism
owski
▁keeper
▁arise
▁Levi
mine
▁Software
▁fatigue
▁guessed
▁stationed
▁Extra
▁builds
South
▁tomatoes
▁booking
▁NL
▁revelations
▁gunshot
vel
▁portable
▁charities
▁Abby
ground
▁1969
▁1954
sal
▁identities
▁heavyweight
▁HA
▁congregation
▁pact
▁Riverside
sia
▁NOW
ario
▁cartoon
▁guitarist
▁knitting
service
▁pat
MT
▁quantity
▁exceptions
▁classification
▁Meeting
els
▁neuro
▁rebuilding
▁pissed
▁creep
▁petrol
▁unwanted
thy
▁spoon
bell
rid
▁Shell
▁expedition
▁Ala
▁Apollo
▁hello
▁succession
▁sights
▁Appeals
▁judging
▁coordination
▁Flint
▁PAC
▁strive
▁agreeing
▁uniforms
jet
800
▁institute
▁promotional
▁pal
▁Parents
▁SD
▁quantum
▁(11
▁reckless
political
▁1%
▁peanut
▁niche
▁Lori
▁dreamed
▁Products
▁guarantees
ía
▁mixing
▁CDC
pu
▁incorporate
▁Devon
▁$300
PR
▁balloon
coming
▁31-
▁condemn
▁successive
▁Alfred
NE
▁steals
▁Municipal
▁violate
▁rows
▁desires
▁postponed
▁hikes
▁borrowed
▁Lind
▁Hon
▁£3
▁pun
▁Rat
▁Traffic
▁Kill
▁begging
▁horn
▁elimination
▁troubles
▁wandering
▁Content
▁columns
▁editors
▁organs
sp
filled
▁coordinated
▁Mile
▁Mara
▁withdrawn
▁unbelievable
▁informal
▁vest
▁LGBTQ
force
],
▁swallow
▁insurers
▁2003.
▁Knicks
▁Enjoy
▁envelope
Li
‐
▁1.8
▁regulated
▁brushed
deal
▁NFC
▁mechanics
▁Higher
▁WR
say
▁ke
▁($
▁clarify
▁beats
▁lamp
vey
▁Income
▁passive
▁utilize
▁abstract
▁develops
▁danced
▁warfare
▁inspector
gon
▁HP
▁tastes
▁swift
▁reduces
▁doctrine
▁rainbow
▁partnered
▁rec
▁wonders
▁installment
▁knit
▁manufacture
▁Volkswagen
▁Premium
▁cries
▁stranded
hara
och
▁nano
iko
hat
▁Sherman
cur
▁Beer
▁proves
▁CAGR
▁bullpen
▁module
▁frightened
value
uni
▁refund
See
▁pushes
feld
▁Bed
▁coincidence
▁demographic
▁underwater
▁efficiently
lle
▁livestock
▁colony
▁dragging
America
▁amendments
oriented
▁sustainability
▁teamed
six
bag
▁poisoning
▁EC
▁Basketball
▁crosses
▁clues
▁superb
▁Funeral
▁slapped
▁circular
▁creators
▁static
vor
▁EV
nn
chy
▁temper
▁myth
▁surroundings
▁misdemeanor
▁obtaining
band
LO
▁battled
rit
▁adopting
▁Embassy
tine
▁nonsense
▁Santos
late
▁Behind
▁Kingston
▁excluded
▁freezer
▁renewal
▁footprint
▁Kathy
▁dial
▁cheering
▁ditch
▁Noble
▁Planned
▁nightclub
▁festivals
▁Chloe
double
▁preceded
▁13.
▁Marketing
▁Pokémon
▁reservations
▁wandered
ult
▁Cast
BO
▁threatens
▁payroll
▁Singer
yes
▁variations
▁Morocco
▁Penny
▁AB
▁reasoning
▁raids
▁diplomat
▁Fight
▁Plaza
▁unrelated
▁Figure
▁chorus
First
▁festive
▁Methodist
▁monitored
elected
▁(15
▁supplement
▁rendered
▁peninsula
▁dioxide
hall
▁2001.
▁commerce
league
▁skinny
▁Ran
▁squeezed
▁backward
▁pretending
-35
▁adverse
▁rumours
▁designing
▁Cas
▁posters
▁Southampton
FM
▁initiate
▁Steele
▁lightweight
▁ITV
▁premise
▁punk
▁Beverly
▁proximity
▁highlighting
▁Dollar
itt
▁depicted
▁170
▁scholar
▁Malaysian
interest
▁Judy
▁CC
▁Stand
▁Guinea
▁Camera
▁burnt
▁Download
▁gameplay
▁beers
▁drift
▁pumpkin
▁bachelor
▁forgiveness
▁$19
kie
▁discovering
▁Nigerians
EU
▁floods
▁halted
▁vendor
▁inclined
▁potty
▁extremist
▁broadcasting
▁14.
SI
mie
More
▁suspend
▁Steam
▁Mae
lly
▁WhatsApp
gro
▁yuan
▁sting
▁Focus
Big
▁reunited
▁Ethiopia
oka
▁analyzed
lus
▁1.6
▁aforementioned
▁Tal
▁Choice
▁Pam
tus
izer
▁Ale
▁patches
▁Touch
▁Santiago
▁Vietnamese
▁Tru
▁Break
▁mentions
▁sculpture
▁brokerage
▁rim
▁semifinals
▁vulnerability
▁def
▁ACC
▁architectural
▁bidding
▁nude
ean
▁Clara
▁warrants
▁repeating
▁Snapchat
bach
▁sour
▁smelled
▁minors
▁symbolic
▁grim
▁adjusting
▁seekers
Am
▁uncommon
erson
▁ideological
▁impress
rant
▁favored
▁Resort
▁Gran
▁exams
▁retaliation
▁footsteps
▁Mil
press
▁escort
▁Parenthood
ña
▁requesting
▁greet
▁burns
▁Lindsay
▁1998,
ée
▁60-
▁Raptors
SS
▁decorations
▁PT
▁shotgun
▁2000.
▁defining
▁Caleb
▁norms
▁să
mir
▁insects
▁rainy
miss
▁diapers
wire
▁concussion
▁behaviors
▁blaming
▁conjunction
▁copied
:10
▁wary
▁Hungarian
▁Hogan
▁pra
▁planets
▁Hood
▁Sharif
Men
▁demonstrates
▁Auckland
▁eldest
▁Creative
▁snaps
▁CPU
▁Burton
▁inmate
▁0.9
▁medieval
▁ci
▁helicopters
▁ATR
▁laundering
▁strings
▁fueled
▁Serbia
lum
▁Date
lik
▁rubbed
▁exploitation
▁(0
▁Pie
▁edged
▁Dell
▁conscience
▁comfortably
▁yell
▁tornado
▁precision
▁Aurora
▁progression
▁eternal
▁Pinterest
▁Broadcasting
▁$22
Like
▁Prison
▁Fresh
▁Tracy
▁motorists
▁bloggers
▁Previously
▁prep
:40
▁1964
▁Chrome
▁allocation
▁variant
▁propose
▁bolster
Most
▁Value
▁orchestra
▁stellar
OP
▁abruptly
▁expired
▁altitude
▁Speed
▁awe
▁glowing
▁raining
▁cereal
▁discomfort
▁disastrous
▁surgical
▁extensively
▁thunder
bon
▁sweater
▁balcony
▁Hilton
▁Vision
▁Bag
▁Willie
▁Innovation
▁pleading
RR
▁Stories
▁Hero
▁1961
though
▁$35
▁SR
Sa
seat
▁marker
▁attracting
▁Petersburg
▁Canal
▁policing
▁collusion
▁outline
SCNG
UR
▁Direct
▁dick
▁Mitt
▁Gear
▁geo
▁cycles
▁Count
▁vegetable
vid
▁potent
▁[1]
▁Gul
▁Bas
▁tactic
▁handles
▁overturned
▁aligned
▁Ole
cm
▁hashtag
▁minimize
▁assisting
▁ounce
▁Job
▁magnificent
▁plunged
▁Score
▁Bol
▁subscriber
▁granddaughter
▁Ultra
▁Clayton
▁counseling
▁dancers
CD
▁corrected
▁Tab
▁reminding
▁1971
▁collectively
▁Iceland
▁GB
▁idiot
▁macro
▁Hull
▁measurements
tag
▁Sei
▁abundance
cell
▁turnaround
▁mound
kha
craft
ush
EX
html
▁Bend
▁Neal
▁Jin
▁exceeded
HC
MI
▁militia
▁deliveries
▁sandwiches
▁confession
▁Somalia
▁jumps
kick
▁Machine
▁PTI
▁roommate
wear
▁Europa
▁Principal
▁Fernando
look
▁vampire
▁cocktail
▁Berg
bor
▁tended
▁staffers
▁Ye
▁connects
eni
▁probability
jar
control
2)
▁weakened
▁Vince
around
▁ace
Ne
▁hydrogen
▁evolving
▁Braves
▁aliens
▁miners
▁Experts
▁Doctors
▁1/2
▁Cardiff
▁Dixon
▁candles
▁cam
▁Teen
▁innocence
▁realization
2.5
LT
▁sucks
▁Running
në
▁conferences
▁lbs
ër
woman
▁Dawson
▁framed
love
▁dismissal
▁Maj
▁foam
▁Mia
▁filmmaker
▁Moss
▁silently
road
Hi
ied
pic
▁Falcon
▁Floyd
length
▁visas
park
▁originated
▁pasta
▁Progressive
▁wildfire
break
rest
▁Schmidt
▁capturing
▁reconciliation
▁exotic
▁stunt
▁Production
▁Honey
▁buck
▁Allison
▁guessing
▁Charter
dic
cin
▁WHO
▁critique
▁texture
▁consult
SM
▁imprisoned
▁offender
pay
▁Kerala
▁pod
▁burglary
ech
▁countryside
para
▁Bart
▁Snyder
▁Bath
▁successes
▁Forward
web
dle
▁Carey
hl
growing
▁Xavier
▁Argentine
▁whale
▁compatible
▁pardon
rating
▁progressed
▁expressions
▁lenders
▁Movie
▁comprised
▁cooperative
▁Yep
▁cracks
▁renovation
▁wagon
▁overlooked
▁Property
▁Pierce
▁Sources
bol
edge
▁Wan
▁Norfolk
▁Collection
▁metric
▁luggage
▁probable
▁Kon
▁economically
▁downside
▁$21
En
▁Across
▁Raw
▁Newman
▁Kre
▁Koch
▁manifest
▁Uni
▁Rubio
▁este
▁biology
int
-22
▁2%
▁impeachment
mun
▁100-
gram
▁15%
▁Cuomo
▁strikeouts
til
▁borough
▁Reporter
▁certainty
▁bishop
▁Manitoba
▁sedan
wind
▁steer
▁Swan
tta
▁harbor
▁dorm
▁Scout
▁BA
▁Same
▁swiftly
▁eve
▁melt
▁footballer
▁warrior
▁chi
tti
▁vanished
▁dough
zing
▁spur
▁learnt
▁Gomez
-0
▁storyline
▁Wei
▁illnesses
▁hinted
▁freaking
▁Sunshine
▁Bengaluru
▁Williamson
▁attributes
▁monitors
▁Organisation
▁chapel
▁influences
▁specialists
▁tactical
ao
▁Sandra
▁Gujarat
▁heavier
▁randomly
▁individually
ying
▁screw
▁rebellion
▁ARE
▁sounding
cas
▁Lives
▁seize
▁($0.
▁constitute
shan
▁uploaded
▁daylight
▁Ter
Sha
aged
▁blah
▁gum
▁Jet
kind
▁Anything
▁responders
▁campuses
would
▁feud
▁Bass
igan
▁Plymouth
▁condo
▁“[
▁easiest
▁substances
▁Damascus
▁villain
▁(1)
▁tenth
▁confirming
▁alerted
▁tasted
!!
,400
▁sponsorship
▁looming
▁remotely
▁token
▁retrieve
DR
▁respects
▁Solomon
▁Sid
last
▁Deb
▁Regiment
Ho
▁performs
▁Cer
▁swings
▁insult
▁siege
▁assaulting
▁TA
▁candle
▁Hebrew
▁sprint
▁honesty
▁Arch
▁dancer
▁startups
▁Tap
▁DS
▁contests
▁Pack
try
▁clips
▁deter
▁Vernon
▁1800
PE
▁Actress
▁undocumented
▁thermal
▁indicators
▁MRS
▁traumatic
▁stigma
▁Caller
▁RA
test
▁mai
▁handgun
▁Halifax
sea
▁Chapman
ţi
▁pumping
▁absorbed
▁shoots
▁Dor
▁SB
▁sellers
▁ultrasound
▁Durham
▁therapeutic
▁WikiLeaks
▁strained
path
▁memoir
▁Belle
sign
▁Transit
▁DR
State
▁Brennan
goal
iro
host
▁Rahul
pot
▁Tourism
Com
▁excuses
▁Fitzgerald
▁composite
▁Citizens
pes
▁incorrect
▁Skip
▁medicines
World
▁shades
▁empathy
bia
▁neglected
▁lacks
▁equation
▁quarterbacks
▁concealed
▁canal
VI
▁Pharmaceuticals
▁cm
▁Brigade
June
▁territorial
changing
▁nursery
▁1951
▁monkey
▁Zu
▁slack
▁freight
▁knot
clock
▁stat
▁chaotic
AN
▁Newport
lies
▁bundle
▁contempt
▁troubling
▁Bean
▁slick
▁sensitivity
▁hacked
▁summoned
▁Webb
▁swinging
Mobile
▁Owens
▁[2]
▁Mostly
▁Normally
▁shipments
▁Gus
▁ONE
▁timber
▁Lodge
▁Loading
▁surprises
▁shrink
▁possessions
▁rendering
▁drums
▁aka
▁dislike
▁classmates
▁helm
▁artillery
▁sinking
▁Recent
▁frightening
▁Orchestra
▁Desert
▁dimension
▁Eva
▁undertaken
▁lure
▁mentality
▁flavors
▁Bun
ann
▁80%
both
▁Downtown
focused
AG
▁Lamar
▁comprising
▁Bou
▁Alexandria
Over
uli
▁Restaurant
▁1936
▁varieties
▁obstruction
▁Counsel
▁Rule
▁Th
▁Greene
bone
MM
▁penis
Bo
iga
▁Dunn
▁Belfast
act
▁cracking
▁Dominic
▁youths
▁entertain
▁blessings
▁tackling
▁lifelong
▁peaked
▁outgoing
▁Track
qu
▁pharmacy
▁max
However
▁accelerated
▁Nadal
▁Nicolas
▁Gri
▁eyed
▁interpreted
▁NAFTA
▁ash
▁founders
▁33-
▁Continue
▁oak
▁Jobs
ax
▁hobby
о
▁Legion
▁Hang
▁17.
▁Roe
▁Ark
▁proteins
▁overwhelmingly
▁implied
▁Boris
▁relocated
▁Bucks
▁Similar
▁deaf
▁headphones
▁boosting
▁manipulation
ls
▁shutting
▁rack
▁Gla
▁Eugene
▁confined
▁Conway
▁CAPA
ld
Neill
▁accumulated
active
wed
▁traction
▁stalled
▁heel
FL
▁NRA
▁Que
▁105
stand
▁obstacle
▁merchant
share
present
▁ja
▁Sunni
▁Audi
▁algorithms
pop
inspired
▁RSI
▁refreshing
▁diameter
▁undergraduate
▁seller
▁beam
▁Ibrahim
▁apples
▁UEFA
▁implies
▁Corporate
alo
▁unusually
heim
▁alcoholic
amp
▁halls
▁backgrounds
▁verge
india
▁submarine
pol
▁Clinic
leg
▁revive
Up
▁battlefield
▁unexpectedly
▁Chance
▁Ava
▁Sai
▁tv
▁ANC
▁stray
▁Pruitt
▁Ivanka
▁Needless
▁Honestly
▁sketch
▁appoint
PP
▁edhe
▁sickness
▁Rules
▁Jacobs
▁remark
▁Birthday
▁demons
▁excellence
▁concludes
AFP
▁Cruise
Da
idad
BS
▁pavement
▁Sto
▁sleeve
▁Malik
▁Cory
▁align
▁së
▁Ade
▁combining
▁optional
nel
▁ridge
▁discharged
▁cater
▁Nepal
raj
`
LP
▁feeds
▁cal
▁ed
▁disasters
▁embarrassment
▁hamstring
▁Tin
▁poems
▁urgency
▁rewarding
▁compelled
Those
▁ordeal
working
▁predictable
▁prolonged
▁Cyber
▁deported
chu
▁Ap
▁AMD
▁synthetic
▁ra
▁Sheikh
lived
▁eyebrows
▁slogan
▁calf
Ga
▁Kha
tty
▁Cultural
▁marble
▁unidentified
▁Ricky
▁abuses
▁slate
▁badge
▁6:30
▁acclaimed
▁CP
▁interpret
▁Haiti
▁marching
▁rats
▁Calvin
▁Manila
cross
Di
▁Personal
▁Sears
▁Rafael
rine
▁Andrews
▁Amsterdam
▁Doc
▁Lakes
-23
▁similarities
▁dipped
▁Complet
▁Bradford
▁Hours
▁insert
▁downgraded
▁presidents
▁Original
▁catalyst
▁semifinal
▁electorate
▁patrons
▁Dia
live
▁louder
▁Paper
▁Beat
▁brake
▁Gerald
▁jointly
,600
▁Albany
▁Sergio
▁Kitchen
▁unanimous
▁thigh
ink
";
Then
▁Clare
table
▁Redskins
▁remarked
▁curtain
AU
▁Generation
▁Shepherd
▁FY
▁exposing
▁grounded
▁stab
▁recreation
file
ule
▁resolutions
arian
ej
▁Nokia
▁disciplinary
▁typing
,800
▁belongings
▁painter
rë
▁hostage
▁installing
ister
▁BO
built
▁ANGELES
▁stimulus
gli
▁slope
▁pedestrians
▁Phone
▁Nash
▁18.
▁warns
▁EA
▁patio
iah
▁bu
▁commanded
mbo
▁supper
▁homeland
▁spider
▁constituents
▁pinch
▁Pas
asi
ndi
beat
▁metals
▁specified
▁Bruno
▁Stark
▁Richards
ê
▁surged
▁amended
▁bro
▁mentioning
▁beverages
▁smells
▁Sy
▁$24
sum
green
▁huh
▁spelling
▁Mosul
▁sober
▁Holding
▁Talking
▁Cinema
▁Catalan
roll
▁scroll
▁Johnston
▁protested
▁ancestors
▁sip
uan
▁eased
Look
▁brakes
▁discourse
▁hunter
▁Turns
▁glove
▁peek
▁dispatched
▁rooted
▁Spin
▁Hammond
▁Language
▁1965
▁Official
▁oversee
▁preschool
▁Venezuelan
▁televised
▁tempted
▁36-
▁Liga
-25
▁compares
▁Jaguars
50,000
▁Perfect
▁(2)
▁statute
▁Kanye
▁Diaz
▁Coin
▁commute
ered
▁Monster
▁6-2
EST
▁berth
▁dreaming
▁Cousins
eur
▁Twins
▁Nolan
tron
▁Treaty
▁ruins
▁expenditure
▁descended
▁Heavy
▁Sleep
▁contenders
▁unemployed
inc
GE
▁blows
SF
▁pencil
Ar
▁foremost
▁melted
▁Melania
mic
NS
▁st
▁explode
▁Teachers
▁splash
▁Ellie
runner
▁recognizing
▁hunters
▁reconsider
▁Boyd
▁wax
▁restart
▁distract
▁2002.
▁SpaceX
▁vicious
▁drills
▁accomplishments
Here
▁grabs
▁staggering
lines
zan
Bar
▁zip
▁fundamentally
,700
▁Gospel
▁brass
▁surgeries
▁Gala
▁Ski
▁queue
▁blunt
▁4.5
rak
▁appropriately
▁refrigerator
▁pedal
▁knockout
itz
▁1937
▁thrill
▁subscribing
▁swallowed
rey
▁Historical
▁closures
ici
▁pumped
▁Barclays
▁Chester
▁Moh
▁AFL
▁Knowing
▁Technical
erman
inter
▁Katherine
▁heightened
▁4-1
▁lace
▁Royals
lecommunications
▁notices
▁Nassar
▁PDP
▁Baron
▁Mirror
▁Roberto
▁Azerbaijan
▁forefront
something
▁populist
!'
▁exited
▁upload
hoe
▁garlic
▁slipping
▁mighty
North
▁exile
▁WHAT
▁arrow
MD
▁Considering
fit
tors
▁reservation
strom
▁gunfire
▁hugs
▁Australians
▁possessed
.95
▁Pal
▁Abbey
▁grinned
▁dunk
▁kisses
▁crib
▁Gore
▁sci
ically
▁CAPTION
▁Sentinel
rig
▁enduring
▁Heath
▁offenses
mond
sse
▁Poly
▁Cell
▁Wellington
▁2017-18
▁flashed
▁19.
▁courthouse
▁Cairo
▁highways
▁Boo
▁PG
▁Dur
▁variables
▁rifles
▁bucks
▁Lucky
▁[...]
▁wardrobe
▁width
▁Lock
▁pigs
mente
hor
▁Chronicle
ils
▁1956
▁Bha
▁1997,
▁Tristan
▁junction
▁Persian
▁offended
▁consist
▁pinned
▁budgets
▁Marsh
▁Danielle
▁Superman
▁gossip
▁Pizza
used
▁Holt
▁Frost
▁Yi
▁sail
▁hospitality
▁1959
▁200,000
▁tearing
▁Mak
inder
▁arose
its
▁1996,
▁rig
▁lesbian
tas
▁contentious
check
▁Blu
ij
▁sympathetic
▁Kel
▁AIDS
▁curled
▁lowering
▁prepares
▁2.4
▁upright
▁premiums
▁unpredictable
▁staple
nin
ement
ologist
▁premiered
▁boo
▁od
▁pivotal
▁healed
▁hype
▁inconsistent
а
▁kits
▁Sharp
▁cryptocurrencie
language
▁screams
FF
▁stacked
▁Cliff
did
▁eligibility
▁Arm
▁verified
▁scanning
▁Brooke
▁nut
TP
DF
▁demonstrators
▁toured
▁Kaepernick
▁Neo
▁skipped
ancy
placed
▁volcano
UM
▁111
▁lava
▁hose
▁Likewise
▁Certainly
▁bees
.35
LL
▁CE
▁Metal
▁Nazis
trade
ista
FS
▁Gau
▁classrooms
▁taller
▁Felix
▁liking
▁zombie
▁participant
▁utter
eon
▁coconut
▁commodities
▁Robbie
▁youngsters
▁surf
▁Qui
▁Vote
▁ALSO
GP
▁Fowler
▁needles
▁photographed
▁volunteered
▁lord
umi
tting
fra
▁Pepper
Maybe
record
▁showdown
▁shoved
▁reopened
▁detailing
▁sewer
▁Waters
zone
▁quad
▁standpoint
▁stems
▁Chef
Mu
▁exempt
▁AA
chief
deep
▁pitchers
▁inherent
▁Course
▁SL
▁Anglo
▁upheld
Get
CS
sol
▁moisture
▁accessing
neutral
▁fork
▁Herbert
▁spilled
▁surrendered
▁Booker
1)
▁undercover
bre
▁misses
▁Rey
▁RB
▁contestants
▁Pad
iser
▁cha
▁ribbon
▁Scar
▁Experience
▁Lancaster
▁Oz
▁concessions
▁MTV
▁3%
issa
▁$50,000
yi
works
LC
▁wholly
Once
▁iTunes
▁catastrophic
▁skiing
dell
▁piled
▁distinguish
▁outrageous
Right
▁Toby
att
udi
ked
stick
cum
▁traced
paid
▁Nikki
▁setback
▁ge
▁federation
▁compounds
▁shootout
tia
▁rabbit
▁CH
▁soaked
▁chatted
▁mit
▁Hardy
▁manslaughter
▁metrics
▁Ng
oid
▁governors
▁Regina
▁unrest
▁fade
▁recruits
▁injustice
▁drawer
▁constraints
▁recurring
▁Keeping
▁Pla
IF
hon
▁ceased
▁pairing
▁virtue
▁Ella
▁alarming
▁gel
▁ribs
▁lag
▁Tele
▁Discovery
▁Mental
▁Led
▁trainers
▁exemption
▁evaluated
▁Comcast
▁NE
▁lend
▁shaft
▁Mos
▁Ramos
food
ATE
▁1941
▁drummer
▁Churchill
▁Whole
▁ample
Time
▁Tate
▁Mormon
▁commenting
ı
▁limbs
▁ignorance
then
race
los
▁smash
▁depart
▁cloudy
▁tomato
▁sync
▁illusion
▁statues
▁Competition
▁meddling
▁acoustic
▁Marion
▁kg
▁characteristic
▁saga
▁flock
▁Brunswick
▁unfamiliar
▁Agent
▁reopen
▁Baghdad
eno
▁($2
nom
hurst
▁tortured
pie
▁strengths
▁Wake
▁microphone
▁imaging
▁Simply
▁Rama
▁Gang
▁asserted
▁renew
▁Hank
LD
▁mar
ition
0.00
▁Fletcher
▁Hampton
▁demolished
▁schedules
▁Beau
themed
▁famed
▁Brewers
▁Kendall
▁contend
▁specify
▁Observer
▁Zoe
▁Hugo
▁gravel
▁wicket
▁dec
▁unsafe
mid
▁meds
▁6,000
▁employs
▁overview
▁Miranda
▁$1.3
ction
▁1966
▁slowdown
▁haunted
▁bark
▁Hezbollah
▁grassroots
▁Islamabad
▁Ship
coin
▁flawed
▁Dem
▁shortages
▁tribunal
▁objections
▁fin
▁Attack
▁tunnels
wave
▁bomber
▁4-0
▁mathematics
▁Nielsen
▁drawings
▁plaintiffs
print
▁discounts
▁digits
▁Penguins
▁Walton
▁sticky
▁mornings
▁drastically
▁$23
▁touted
▁gangs
:50
▁Ace
▁Pool
▁1946
▁plagued
▁RBIs
▁skate
atic
▁liquidity
▁supreme
▁Scotia
nut
▁selfie
▁Pic
▁burger
▁Electoral
▁singled
▁dim
▁sensible
▁CCTV
▁jerk
▁Admiral
▁imagery
▁tighter
▁intercepted
▁Mali
▁Wheeler
▁Mart
▁CAN
▁Crow
ern
▁contaminated
▁Georgetown
etta
▁ceremonies
▁scoreless
▁owning
ç
▁standings
-30
▁winding
▁vitamin
▁Jamaica
▁garnered
▁Eu
lane
▁tick
▁thankfully
▁unite
▁Than
▁crafted
▁Patel
▁dictator
▁Isaiah
▁urine
▁wildfires
▁angels
▁Comments
TON
▁grams
▁Canberra
▁confirms
▁ingredient
▁unpaid
▁Raja
encia
▁avail
IB
▁undertake
▁obscure
yne
▁lingering
▁empower
▁Launch
▁Interestingly
▁lust
▁chores
CK
▁Vale
▁sunglasses
▁Kathleen
▁geography
▁Flat
aq
▁FL
kes
▁Gur
▁marginal
▁inquiries
▁SH
▁Frankfurt
▁easing
Muslim
▁tar
▁34-
▁Guild
▁1949
▁Mickey
▁Feel
▁Ara
▁prediction
▁Hit
▁professors
dies
▁Move
▁whales
▁bouncing
▁1919
▁begged
▁Sale
▁Shaun
▁IMF
▁VP
▁plunge
▁cheered
▁Tha
▁condolences
▁Bengals
▁eagle
▁Harley
enko
▁gallon
▁1945
Americans
ifying
▁Campus
▁nevertheless
▁Associates
▁Essex
▁[3]
▁accuse
writer
▁Jude
▁relentless
▁blockbuster
▁DACA
▁smoked
▁tractor
dian
▁heroic
Ru
▁Fly
▁unwilling
▁basin
outs
fair
▁steak
ér
▁stern
▁Fal
▁Mercury
▁Easy
▁reconstruction
▁Athletics
▁councillor
▁axe
▁Mariners
▁reset
▁Retail
▁Luck
▁tubes
▁Elite
▁populated
▁08
▁Maya
▁dissent
▁Bahrain
▁bake
aux
▁maximize
▁Tyson
▁Simple
▁Bright
▁ruler
▁sorrow
▁disturbed
▁shaken
▁admired
▁stool
earnings
rel
,''
▁GA
▁embracing
▁perimeter
▁RV
▁Rochester
▁Strange
▁declines
▁demise
▁Airbus
▁salon
▁Torres
▁banana
▁pity
▁pools
▁Gloria
▁(14
▁extremists
▁Courtney
▁uprising
▁Chicken
national
▁pri
sti
▁Niagara
▁escorted
▁insufficient
▁respectful
▁Beckham
▁anime
▁Snap
▁sidelined
▁indie
▁illicit
▁Jerome
▁captive
▁mistaken
▁blur
▁suffers
omo
tern
▁heights
ography
▁Kapoor
▁Sergeant
1.5
▁segmented
▁counselor
▁joking
▁Peters
▁Ramirez
▁satellites
▁popping
▁guides
hur
Life
▁wow
▁surreal
▁judiciary
▁prolific
▁candidacy
▁Opening
▁Lim
▁Prosecutor
▁lakes
▁Edgar
▁correlation
▁Quality
,300
▁Cities
FI
▁//
▁seizure
▁Wenger
Love
▁gu
▁linear
▁Bollywood
▁Amid
▁entre
▁grind
▁Rolling
▁Spicer
▁crushing
▁Expo
▁presenter
▁Hicks
ct
▁bodily
▁imperative
▁proposing
▁Serena
▁Abuja
proof
▁meta
▁foundations
▁flashing
▁villagers
▁whipped
▁pi
▁1955
▁Zuma
▁Salvador
lio
daily
▁cache
▁Grill
osis
▁Marines
▁influx
▁overseeing
▁Sprint
▁Allan
▁sixteen
country
gor
sham
▁preservation
▁comforting
▁Hansen
tom
▁$5,000
▁contingent
▁1957
▁Brain
▁plead
▁tasting
▁Reserved
COM
BL
▁chemo
▁90%
▁researching
▁smarter
▁faction
▁Ebola
▁justification
▁ensured
▁Anton
î
▁bedrooms
▁mattress
▁CAR
▁mon
▁hottest
▁goat
▁Fr
metre
▁$1.2
abi
▁Meg
▁catalog
TT
▁immunity
▁Economics
▁Corn
▁accompany
sub
▁impending
▁Jag
▁Bir
▁Craft
▁whisper
emi
▁Dev
▁autonomy
▁Jinping
▁Maxwell
▁cheat
ota
▁simpler
centric
és
▁masks
▁Mul
▁Venice
▁Mix
pra
▁tray
IO
▁costing
kill
▁destined
▁heartbreaking
▁tweeting
▁1939
▁Sell
$2
▁noises
▁tele
▁1943
▁Gha
▁Fra
uru
▁hates
iu
▁optical
▁debated
▁Believe
▁Milton
▁Cab
▁sins
▁erected
▁modes
▁bait
ume
▁perfection
▁Nonetheless
ivo
ree
▁wolves
▁(13
▁voluntarily
April
▁Rising
fly
▁thriving
▁Depression
▁impaired
▁Tide
RS
▁homers
▁Wave
rup
code
▁Rec
▁Katrina
▁specially
shire
▁combines
▁utilized
▁bans
▁Gee
▁CB
ados
▁15,000
▁collaborative
▁structured
NR
won
▁refined
▁psychologist
mount
▁strengthened
▁patron
nder
▁Complex
▁rubbing
▁Cherry
frame
Everyone
▁expresses
▁decree
▁4-3
▁explosives
▁128
▁Didn
–20
▁scales
NT
▁XL
▁Question
▁swamp
▁diplomacy
▁peacefully
▁115
ucci
▁noticing
▁CI
▁Laboratory
▁Nigel
-24
5%
▁Cow
▁Shield
▁activism
▁quake
▁resistant
▁negatively
GR
▁sailed
▁spectacle
▁tangible
▁mates
▁debts
▁Factor
▁floated
▁Christina
▁Spot
nine
▁upwards
▁turf
▁purported
PF
▁manipulate
▁icy
ended
Ch
▁Rivera
▁demolition
ome
cker
stream
▁understandable
▁Single
▁suing
▁tasty
▁vivid
inning
▁abortions
▁attractions
kins
ame
▁noticeable
▁measurement
Her
▁trajectory
▁shaping
sport
▁Guess
▁prosecuted
▁competent
economic
▁leaking
▁Zack
▁caucus
▁councillors
AI
▁tagged
▁contra
▁Rouge
▁Lip
▁predicting
▁Clear
▁1935
▁telecom
▁denounced
▁qualification
nation
▁galaxy
gri
▁Ven
▁Brands
lich
▁grill
▁1952
▁Battalion
▁cherry
▁Sak
▁negotiation
▁Casino
▁lavish
м
growth
lim
▁SM
▁graph
▁bikini
▁congestion
▁rocking
▁endorse
▁Payne
▁weighs
ias
▁render
▁accustomed
▁Cable
▁carriage
▁10:30
MAN
worthy
▁Victory
▁standoff
IG
▁paragraph
▁Kir
▁rein
▁Avengers
plan
make
▁Bug
Please
▁standout
▁bargaining
▁theatrical
▁triangle
▁1992,
▁Lau
▁Mau
▁heartbeat
▁resisted
▁irony
▁Elon
▁Beautiful
ison
▁Appeal
full
▁Playing
ess
▁freeway
▁Stephens
▁ink
EF
▁liberals
ador
▁emergence
general
▁Origin
▁Rapids
rá
▁communicating
▁misery
▁storytelling
qi
▁landlord
▁prints
-3)
▁reliability
rea
▁instinct
▁1929
▁Burger
▁tomb
▁Salah
▁humidity
▁defines
▁Bla
▁hitter
▁Geo
IR
enter
▁Herman
▁jumper
▁Hamburg
▁RHP
pack
▁ANY
tree
▁60%
▁contractions
▁Breitbart
bet
bot
▁weaken
▁prisons
▁tsunami
▁persecution
▁HS
▁Leadership
▁altar
▁lengths
▁spat
▁recognizes
sted
▁Willis
▁Legislative
MeToo
Mark
▁Artist
▁thirteen
▁angles
▁6-1
▁Hyde
▁Near
▁1962
wife
cz
▁Darwin
ille
▁buffer
▁Surely
▁foolish
▁fairness
hart
▁Cass
,
▁Bern
▁energetic
UK
▁optimal
▁sideline
▁bolt
▁vibe
▁PD
uro
load
▁dimensions
▁Roland
▁Bluetooth
▁expelled
▁Qu
▁£5
▁internally
▁bracket
▁Alison
▁daycare
▁Damon
▁viewer
▁demonstrating
▁convoy
▁duke
▁Sounds
▁blues
▁brighter
▁pounding
col
150
▁Tiffany
nny
▁eco
scape
turn
▁toughest
▁wicked
▁humour
▁Pioneer
▁insulin
▁Ottoman
▁maiden
▁Writer
▁applause
▁ham
▁balancing
▁chambers
▁40,000
guard
trick
▁stylish
▁fallout
▁07
▁zee
▁22.
▁Ai
▁Hoffman
▁pumps
▁unpleasant
▁Cafe
▁circus
▁Dustin
▁Weber
▁más
▁BI
▁Basin
▁cancellation
▁Phillies
▁Thirty
▁Must
▁outspoken
ndo
▁Wealth
▁pads
▁Parkland
▁1999.
▁suppress
▁pioneer
▁Cara
▁nausea
▁XI
▁Becky
▁Politics
ggy
▁Site
▁Wong
▁Lego
▁relates
▁thrilling
▁bypass
▁occupy
▁Lead
▁Zhang
▁homelessness
▁Milo
▁molecules
▁drained
▁freelance
▁Farmers
ular
▁1995,
▁Conte
▁slash
▁remarkably
▁fulfilling
▁fascinated
help
▁unified
vic
▁Fre
social
▁Gaga
▁Capt
lem
▁tapping
▁hints
▁Moody
▁1)
▁Princeton
Hold
▁relieve
▁Scho
tered
▁hesitate
▁twitter
▁Maharashtra
▁revolt
▁Solo
▁helpless
▁settlers
▁AU
▁accomplishment
▁1934
▁cables
▁dilemma
▁flick
▁intentional
sman
▁cushion
▁Jorge
public
▁dwarf
▁Pier
▁outskirts
▁malware
▁vegetarian
▁[4]
▁Highland
ere
▁affiliation
▁psychiatric
▁Daisy
▁Families
▁farewell
▁skipper
▁wasting
▁Reno
ete
▁tags
HD
▁că
SON
▁fingerprint
▁Hurricanes
▁wilderness
▁Speedway
▁Hun
▁Bates
▁fraudulent
▁conceived
▁replies
▁refrain
▁Rita
▁Ras
eti
▁drunken
▁volleyball
▁Dai
▁Above
osh
Many
▁Cur
▁corps
▁1994,
▁Cyprus
uga
▁Northwestern
▁saddle
▁Elvis
▁Sab
▁undertaking
▁login
▁Damn
Pre
▁crafts
▁sch
sim
▁Guardiola
▁hefty
▁Cedar
▁Ari
AB
▁dice
▁JPMorgan
▁proprietary
▁Valencia
▁Armenia
▁Guatemala
▁layup
▁Marlins
▁coroner
▁dynasty
▁scar
▁Dom
▁Savage
▁Fur
▁stroller
▁Rockies
▁Bran
▁protagonist
ulation
▁philosophical
▁capita
▁briefed
▁rot
▁clearer
shirts
▁Wolves
▁cybersecurity
lings
▁bedtime
▁Employees
▁Hook
▁Abdullah
▁Growing
rod
▁knives
▁clown
0%
▁incomplete
▁phrases
een
zie
▁defect
Game
▁cautioned
▁richest
▁Orioles
▁genocide
▁rod
▁rant
▁vault
▁Vin
▁commissioners
▁chess
▁Hale
▁prejudice
▁Til
▁paramedics
▁slew
▁announcements
▁naive
Red
founded
▁exhaust
▁observing
▁Uttar
kat
▁tha
▁Programme
▁professionally
▁CF
▁innovations
▁hurdles
▁abusing
science
▁mortal
IV
▁Event
▁bald
▁TRENDING
▁separating
▁Horizon
▁reproductive
▁cruelty
▁positioning
▁PRO
▁Bring
▁mourning
talk
him
▁divisive
▁wizard
▁Prophet
▁Satan
roy
▁102
▁discretion
▁grieving
▁TMZ
▁respiratory
▁aspirations
▁casually
rag
▁lenses
ovich
elo
▁shells
▁Cra
▁certificates
▁Clo
Come
▁enforced
▁weaknesses
Last
▁versatile
▁whereabouts
▁realities
▁phenomenal
▁listeners
▁Crew
▁Clement
▁academics
▁Ek
CBC
▁facebook
▁Yard
▁21.
▁Path
▁annualized
▁injuring
▁Fields
▁Vanguard
▁SW
▁combo
▁Peak
▁induced
▁5:30
▁Earnings
▁sufficiently
shaw
▁Minority
▁vent
▁ga
▁Hammer
▁texted
lb
▁merge
▁45-
fil
etic
▁displaying
▁repaired
▁fourteen
▁criticize
▁Providence
▁$26
▁maritime
▁Chandler
▁Depot
▁pathway
▁compensate
▁pu
▁allege
▁hollow
▁prevalent
▁Beatles
▁Democracy
▁calmly
▁squadron
tone
▁appliances
▁drowned
rail
▁collided
▁glue
kon
▁relegation
▁Savannah
▁bonuses
▁residency
▁legalization
▁excluding
▁leash
▁rebuilt
▁commanding
imo
▁Railroad
▁merchants
still
hem
▁whopping
▁Acting
eman
▁exhibited
▁Das
▁175
▁piles
▁damp
▁Jamal
oj
▁stamps
▁Kot
▁Monaco
▁Typically
▁Tag
▁restraining
email
▁procurement
▁monarch
your
▁Vista
hel
▁browsing
▁antique
tim
▁workouts
▁26.
▁apiece
▁Billboard
▁intra
▁Scroll
▁prohibition
▁Malta
▁premature
eck
▁Places
▁Klopp
▁Marty
player
▁lodge
▁replica
▁Jedi
▁acknowledging
▁proxy
▁teased
▁daytime
das
needed
▁envoy
▁Episode
▁Chemical
▁Leah
▁SF
▁bites
▁airing
liter
▁assertion
ios
▁correction
▁yearly
▁Ramsey
▁Kenyan
/10
ibility
▁gallons
▁hypothesis
▁Spotify
▁Byron
ense
700
▁artifacts
▁parental
▁Jae
▁Reach
▁Rory
▁Ethereum
▁occurrence
▁fries
pass
▁Piper
▁addicted
▁Otto
▁Pyeongchang
▁towels
Any
apa
▁activate
▁sensational
▁quantities
▁promotions
▁UPDATE
▁Salem
▁exhibits
▁Stoke
▁Devil
▁sorted
tem
▁Finding
▁bushes
▁poker
▁deepest
▁injunction
▁neutrality
▁Legend
uh
▁stubborn
▁Dortmund
▁Porsche
▁Ladies
▁mist
flu
▁allied
uta
▁Turning
ر
▁harmony
▁tightening
max
▁AJ
CM
▁Raven
▁rib
imit
▁conductor
▁Romanian
▁Assange
▁festivities
▁Beginning
▁Cornell
▁MRI
keeper
center
▁coral
▁Flu
▁discusses
.05
▁melting
▁promotes
▁proclaimed
PT
▁resilience
▁Breeze
Reilly
с
▁surfaces
▁Shot
etz
▁privileged
zon
sexual
ž
▁Tenn
▁Vic
▁Avery
▁Adventure
▁Pit
▁une
▁Middleton
▁brewing
▁constructive
▁lows
▁sal
▁pope
ي
workers
▁Dodge
▁ED
PG
▁reboot
▁lodged
▁behavioral
▁asthma
▁Elections
▁downloaded
▁Chart
▁1993,
▁sleeves
ais
▁scarf
▁evacuate
▁assignments
▁hail
▁selecting
ega
.80
▁genus
uc
▁bids
FO
▁Sunderland
▁undisclosed
▁metropolitan
sun
▁8:30
▁adequately
▁penny
▁mitigate
▁Matter
▁Chevrolet
▁psychiatrist
imin
▁VIP
▁Connect
White
http
ave
block
▁maternal
▁destiny
▁variants
▁realizes
ack
▁OH
▁2.2
▁remake
offs
dine
▁strips
ctu
▁attribute
▁hopped
▁spectators
hai
▁Stefan
▁Scientific
▁contamination
▁Baylor
▁trek
▁Bert
▁fulfilled
▁antenna
▁Airways
▁Managing
▁boarded
▁1932
▁Jeep
▁ODI
▁Grandpa
ML
▁Cardi
▁Archbishop
▁thieves
▁lineman
▁automobile
League
▁descriptions
▁fireplace
▁literacy
pit
Connor
▁conform
▁forums
▁UT
▁Progress
▁Gareth
▁Whitney
▁attach
▁councils
▁manually
▁gradual
▁Devin
▁Fury
▁Bashar
▁projection
Ad
taking
▁criticizing
▁Wash
▁unto
▁Ac
▁poles
▁flush
gard
▁brew
▁ringing
▁cowboy
▁analyses
▁bumper
▁disregard
▁republic
idi
▁scoop
▁pros
▁comprises
▁Dalton
ddle
▁unlocked
▁assaults
▁Panther
July
▁notebook
▁autopsy
position
▁Bryce
▁illustrated
▁accepts
▁ECB
▁sums
▁ur
▁Lar
▁Crosby
▁Motley
▁entitles
▁McCabe
chair
▁Impact
▁incomes
FE
▁Hour
▁Oracle
▁Tang
▁uh
▁strokes
leigh
▁Hai
▁baseline
▁escalating
▁exercising
▁Civic
▁Woo
amo
eyed
FR
▁Factory
▁scandals
▁indefinitely
serving
▁shrine
▁consulate
▁shovel
▁frontier
▁tra
▁Bai
cra
▁intermediate
▁dread
▁Kohli
▁horizontal
▁phases
▁Barn
▁compliment
▁warriors
▁roast
▁rash
▁echo
▁Aberdeen
▁Specifically
ath
▁CS
▁challenger
▁disagreed
▁Wikipedia
▁guiding
India
▁miniature
▁softball
▁Bloom
▁masters
BR
▁Allied
▁archive
▁prevents
ssel
▁interrogation
system
TU
▁entirety
▁diary
▁CBD
▁MIT
▁sibling
▁23.
▁rigid
rn
▁enlisted
▁Rou
▁batter
Pic
▁subsidiaries
▁syrup
▁Purdue
▁prevail
▁Basic
▁advocated
▁eighteen
▁Multiple
▁texting
▁Math
char
▁evangelical
▁restoring
▁escaping
▁Dogs
▁sprawling
▁plague
▁dé
▁TM
▁bathrooms
inda
▁bloom
.00.
mouth
▁accusation
▁tents
▁Pablo
▁chooses
▁SG
▁cyclists
▁synagogue
▁butterfly
▁motel
sten
▁lamb
▁gamers
dimensional
thi
girl
speaking
▁persona
▁Dominican
▁swollen
▁Squadron
▁Citizen
fast
▁reinforced
▁IoT
▁KC
▁thru
▁reductions
▁vaccines
▁yo
ichi
▁Lil
▁ol
▁factions
▁1,200
▁José
▁Comedy
▁Lyn
HL
▁crunch
▁misunderstand
▁Cheryl
▁1918
–2
▁Abbas
▁Truck
▁Isle
▁RM
▁consolidation
▁smuggling
▁congressman
▁markers
▁soared
▁1910
▁dans
▁wit
▁logging
▁$150
het
▁Fortune
▁4-2
▁headquartered
isha
▁entertained
▁Freddie
▁maturity
**
▁chic
ssa
▁inflammation
ashi
▁Rodney
TB
▁bells
mad
▁Alt
▁Minor
▁SU
▁coordinate
ELL
storm
▁brigade
▁Shirley
demand
▁Hartford
▁slaughter
▁$27
▁Map
▁Sham
▁stained
▁stormed
▁103
▁petroleum
▁Bach
▁depths
cel
▁mag
played
▁procession
▁Mira
,200
VR
▁dumping
UP
nos
▁delightful
▁Perkins
▁1.7
saving
▁trousers
Ed
▁defenseman
▁cathedral
▁Harbour
▁Equity
ttle
▁$500,000
▁revived
CI
▁ounces
▁Advisor
▁altercation
▁Arlington
Since
▁sphere
▁Nord
ppy
▁Marina
▁fishermen
▁Period
▁til
Cal
Russian
▁Sche
▁Celsius
▁Hawaiian
imp
▁brink
▁seafood
▁106
▁cre
RB
cht
▁Rabbi
4)
▁3.0
▁AAP
▁Gr
▁fertility
▁cardiac
▁Yadav
especially
ith
nch
▁Moto
▁Coca
▁Venus
▁Katy
▁mirrors
▁Therapeutics
▁4%
▁cons
▁vicinity
▁arsenal
▁Vanessa
▁1948
igo
▁brewery
▁TB
▁commentator
eer
▁feathers
▁crises
▁emphasize
▁oppression
CU
!!!
▁DNC
ullah
▁70%
tr
▁Sil
▁amounted
▁microwave
▁OnePlus
▁preserving
▁vanilla
Out
▁clicked
▁Quarter
chin
▁regained
▁doses
▁defenses
▁fearful
▁1916
▁ranges
▁Weiss
figure
▁advocating
▁formidable
▁severity
▁Naomi
▁JD
▁rogue
▁oversees
▁scenery
▁Oilers
▁sunk
▁bets
▁sergeant
▁Stalin
▁Cambodia
▁Product
▁traces
▁Jonas
å
▁uranium
▁leftist
mina
▁harassed
sponsored
▁Comics
▁Daughter
▁coffin
▁devotion
?'
▁fuss
fund
▁Risk
▁campaigned
▁Indies
▁LNG
▁Scha
▁shutout
▁Reg
▁passer
▁rays
▁tempo
ges
Bu
▁Evil
Two
▁Djokovic
▁irrelevant
▁undefeated
▁gem
▁friendships
▁Serie
▁exploited
nna
▁choke
▁groom
▁commemorate
▁spoiled
▁forged
▁reminiscent
▁Sau
▁BT
▁evaluating
▁Imran
▁Dinner
▁28.
▁sucking
mers
▁frowned
▁Institution
▁collaborate
▁perceive
▁2:
▁circulating
▁maternity
▁Wish
▁Randall
David
▁historians
λ
▁Hydro
▁metaphor
▁doubling
▁disbelief
▁inducted
▁arbitrary
":"
▁ballet
▁Abrams
▁104
count
Super
▁finalized
uring
▁coaster
▁sway
▁singular
▁uphold
sil
▁polled
▁FX
CT
seven
▁friction
▁Foot
▁9:30
▁Bolt
ivity
▁37-
anne
▁Ivy
▁updating
▁Nina
▁temptation
▁ES
▁Funny
eight
▁Dash
▁wires
▁developmental
▁powerhouse
▁reigning
esque
▁madness
▁notch
▁justices
▁Customers
▁Carpenter
▁Dancing
▁Af
ars
▁fiery
▁Crazy
ité
▁riots
▁Len
▁108
ih
▁£4
▁lame
▁disrupted
▁McC
▁definitive
Hu
▁Hil
▁scout
turned
▁woo
▁notifications
▁mapping
▁organizer
▁09
▁lender
War
▁tiger
▁Strategic
▁transferring
▁soaring
▁chilly
▁goaltender
▁chancellor
▁Cavs
▁maneuver
▁Parade
▁Rhodes
▁Sit
▁beneficiaries
▁Finnish
▁snakes
▁aloud
▁grad
▁retaining
▁cardboard
▁kindly
▁necklace
▁Mesa
kal
/1
▁tow
zel
▁29.
▁brace
▁ensuing
▁Shelby
▁Internal
▁Cotton
San
▁JP
▁circulated
▁$70
▁polished
▁lecturer
▁Nuclear
▁surpassed
ND
▁cakes
▁crawling
▁enthusiasts
▁barbecue
▁advertised
600
ester
▁plight
▁Fest
▁cozy
▁tighten
holder
▁Conor
▁Blade
▁Qa
▁Strategy
▁orgasm
▁Donovan
▁vastly
▁hatch
▁maid
▁31.
stead
▁Weekend
ride
eem
▁desirable
▁Kelley
▁modeling
▁tenant
▁Haram
▁Events
although
▁Nicola
▁offline
▁cleanup
▁apparel
▁darling
▁Rica
▁Paula
▁Pilot
▁blond
▁Pep
▁translates
pel
▁attachment
▁Stella
▁Noel
▁q
▁subjective
▁Sophia
▁Elijah
▁accidental
▁interventions
▁Cru
▁unpopular
▁Av
▁Snowden
rier
▁breastfeeding
▁Fit
▁myriad
ache
▁verification
▁alignment
▁GI
▁McCoy
▁embarked
▁pins
▁Lebanese
▁Trafford
▁locking
▁uncertainties
pri
rri
▁exceptionally
▁darn
super
▁Firefighters
call
▁paddle
▁bishops
▁Buddy
▁Reich
▁contributors
▁Nana
▁supplements
ovic
▁discourage
▁Denise
rik
▁Provincial
▁extinction
▁Hubby
▁Wol
▁slump
▁sincere
▁$400
UL
▁Jupiter
▁sung
▁SI
▁sus
▁var
▁drowning
▁Rural
▁Strike
gie
▁Hastings
lier
▁commenced
▁photographers
▁numb
▁splitting
▁songwriter
▁Cla
▁asshole
▁persuaded
▁colonies
▁Trey
▁Gazette
ி
▁Sens
▁punches
▁logs
▁await
▁Teresa
▁„
▁vein
▁°
▁lent
▁Expect
▁basics
▁Cle
RL
▁narrowed
▁[5]
▁varies
▁protects
▁Nope
▁Via
▁swelling
▁concession
▁identifies
▁Ankara
▁Mut
▁terminated
▁woes
business
▁NRL
▁mattered
▁Paulo
ois
▁heir
▁baggage
▁reversal
▁CJ
▁1944
▁manuscript
▁generator
▁Infantry
hua
wy
▁unstable
▁stereotypes
▁Watts
▁branding
SR
▁PSG
▁Carlson
▁2016-17
▁theoretical
▁froze
▁Willow
▁punching
▁reliance
sec
▁vain
NP
▁AAA
▁bookstore
TF
▁poke
▁granting
▁wellness
▁Hawkins
▁Sidney
▁communal
flow
▁fucked
▁curtains
▁admissions
▁possessing
▁scheduling
▁continuation
▁alumni
▁Male
▁obey
▁Adding
duty
scoring
▁unofficial
ural
ded
▁receipt
▁compilation
▁cuisine
▁Kind
▁biased
▁Electronic
▁Bonnie
▁Neymar
▁yogurt
▁Observatory
▁exclusion
▁―
▁1915
▁heap
neck
▁bats
▁biting
▁stronghold
▁Lawson
▁Category
▁surround
▁seizures
▁Erie
▁ki
.
▁screened
trans
▁raft
▁ye
▁emperor
▁yacht
▁monuments
eus
▁senses
Per
▁GST
▁Pasadena
▁Gupta
▁lumber
▁1924
▁museums
▁stumble
aud
▁congress
▁Wis
▁Chennai
▁Aussie
▁rampant
▁Kun
heart
version
▁Jos
▁scholarships
▁Properties
▁Popular
▁worthwhile
cie
▁damned
▁BUT
▁USS
▁1912
▁filmmakers
▁daunting
▁sperm
▁rockets
ched
▁shrinking
▁Boone
nam
▁distributors
▁Leigh
▁thesis
▁1991,
abad
▁favourites
▁dent
▁stitches
▁liar
▁caller
▁Laurie
RF
▁Chat
▁instability
▁Riyadh
▁1922
▁MT
BE
▁collector
Mexico
▁regiment
▁Denis
▁haircut
▁breakout
▁Quite
▁Cunningham
▁Karnataka
▁acquitted
▁dominating
lé
▁Pearson
bur
▁crypto
ingham
CB
▁diminished
▁attendant
▁$250
▁toilets
▁staircase
▁thief
kur
▁retention
▁bullish
▁tease
▁advertisement
▁Flying
xa
ides
▁greeting
▁scars
▁invention
:35
▁Whereas
▁Infrastructure
▁voyage
▁Renaissance
vu
▁Cry
▁comparisons
oso
▁ré
▁religions
▁dissolved
ô
▁northeastern
▁ICC
playing
▁2-2
▁bully
▁aided
▁Comic
▁BuzzFeed
▁harbour
▁drifted
▁Uh
▁Kom
▁downturn
▁hectares
▁ironic
▁drastic
-40
▁Indy
dr
rent
onia
▁overlooking
▁testament
yon
3.5
▁multinational
▁Alta
▁grilled
▁Stick
▁1928
▁betrayed
▁Terri
▁millennials
▁Engineers
Tech
▁Wide
▁referenced
▁Fighting
▁Sporting
NI
▁Gra
▁analyzing
▁Wyatt
eller
gs
▁Scouts
▁blockade
▁450
▁Padres
▁forbidden
▁consulted
▁ranged
▁slides
▁Chain
▁Jenna
▁Murder
▁Active
▁journals
▁Previous
rou
▁transmitted
▁Barton
▁Kabul
▁Newark
ICE
teen
idae
▁Islanders
▁Brun
vert
▁deficits
▁Gina
▁folder
▁Vel
got
▁rigorous
▁Sem
▁Boat
▁Maurice
▁Edmund
▁Knoxville
▁governed
▁continental
▁Sultan
▁Notice
▁Py
▁headaches
Semitism
▁Alphabet
▁screwed
▁Gift
▁torch
▁spear
▁killers
▁Bab
▁9-
▁perpetrators
▁Dover
▁inception
atory
safe
normal
ranking
▁Adult
▁Ola
▁assessments
▁patiently
▁printer
▁coats
▁Gel
▁Mod
***
▁filters
▁scratched
▁8,000
▁invasive
DI
BI
▁gal
▁Ride
nz
▁`
bird
▁irregular
▁courtyard
▁atomic
▁magnet
bling
▁crust
▁consolidated
▁desperation
▁Rooney
stan
▁expenditures
▁responds
▁disciplined
gus
eve
▁singers
▁Stockholm
▁harness
▁infectious
▁eBay
▁LOT
Obviously
▁đ
▁Photos
▁Resource
▁facto
▁firefighter
▁educators
iron
ν
Ni
▁molecular
▁Revolutionary
▁cor
rina
▁cellular
▁spinal
▁additions
ics
lick
▁Ultimate
▁PF
ente
▁tattoos
▁booming
▁Mode
▁Suite
▁Investments
▁blink
▁Feeling
▁analyse
▁systematic
ffer
▁Era
▁1998.
▁Luna
▁panicked
ote
▁predators
▁Trying
vision
▁Archer
▁Wii
cock
note
▁Minutes
▁sailors
dam
▁gag
▁paved
▁query
lab
▁genome
▁Continental
▁Marshal
▁archives
▁fixtures
▁resemble
iza
▁shi
▁Aston
▁pressured
▁Cobb
▁Chin
▁hierarchy
▁escalated
GS
VE
▁ousted
▁announces
▁LB
▁NI
▁Constitutional
▁Moor
ić
▁advising
▁marriages
▁Mina
▁Witnesses
»
▁Catholics
▁27.
gged
▁instincts
▁messed
▁inserted
▁Prairie
▁Niger
▁Absolutely
▁collaborated
▁Icon
▁112
BB
rol
▁Crimea
▁mug
▁prosecute
▁vegetation
▁Canucks
▁Schultz
▁levy
dem
▁termination
hoo
▁Frontier
▁Bulgaria
▁sausage
RD
▁Nas
▁confess
▁slumped
▁1921
▁Wrestling
▁Sutton
MU
▁Doyle
UT
▁customized
TY
▁Leg
▁falsely
ako
▁Hair
▁errands
▁spec
▁Tata
flight
▁$28
▁revision
▁finalists
▁remedy
▁resilient
▁fatalities
▁verses
▁MB
▁depressing
▁Cain
▁tro
Fe
▁boxer
▁capitalist
▁Mnangagwa
▁ignorant
▁liberation
▁infants
▁Bronx
▁Eat
Sports
▁sc
▁1938
▁clergy
▁companions
stown
content
5.00
asa
mming
▁vomiting
▁hazard
NN
▁encryption
▁sciences
▁directive
":
camp
▁vo
▁pathetic
<
▁runoff
▁Mit
stad
▁intrigued
▁kickoff
▁aerospace
▁Corner
▁Og
lov
▁CW
▁boil
▁assurance
▁chew
▁hum
▁Log
▁portrayal
▁expire
▁editions
▁ashes
▁motivate
2).
TI
▁raided
▁upgrading
▁meltdown
▁Von
▁Poll
percent
▁Yorker
cept
▁Rom
bul
▁solitary
▁Aleppo
▁amenities
▁Sunny
▁2.1
▁vol
▁Res
aver
OD
▁Airbnb
▁Thi
▁Counter
000
▁gases
think
▁Holder
UC
▁Dorothy
▁condemnation
▁90-
▁persist
▁Stanton
HR
▁fashioned
▁hormone
▁battered
▁adhere
▁replicate
▁Eco
▁windy
▁Symphony
▁ceasefire
▁Renault
▁ACLU
▁HB
▁balloons
▁Cave
▁Dragons
▁Directors
hm
▁brokers
▁1:
▁goats
▁DM
▁lunar
▁biography
▁Celebrity
▁mandated
▁waiver
▁Libyan
ingly
▁avid
come
:25
▁vinyl
▁erase
▁Mining
▁onions
▁Sav
▁33,
▁Mora
mission
▁Ranger
▁Deputies
▁Emanuel
▁umpire
▁chemotherapy
▁hormones
▁Lionel
▁rink
▁converting
▁Cork
▁landfill
lett
▁Saw
▁Jennings
▁Palin
▁exhaustion
tina
▁1500
▁honoured
▁Elliot
▁2,500
▁abundant
▁esta
▁Norris
MG
▁hog
▁bankers
▁fractured
▁MSNBC
▁catastrophe
▁6-3
▁roadway
▁deprived
▁Unity
bil
▁workload
▁clarified
lation
tiv
▁Secondary
у
▁athletics
▁graves
▁Recreation
hearted
▁Honduras
tler
▁idol
▁upbeat
kowski
▁1931
quin
▁1927
▁Rainbow
▁Surface
▁Aviv
▁enhancing
▁shale
▁scrambled
▁Westbrook
INE
▁processors
▁1989,
nj
▁inaccurate
▁Boxing
▁illustrate
large
▁dryer
Dr
▁assessing
sure
gio
▁fountain
▁Schwartz
▁Chrysler
▁perspectives
▁Text
▁2)
▁Bali
▁7,000
ald
▁recycled
▁$45
,900
▁Hazard
▁Manufacturing
aff
ain
▁lectures
▁rumored
keeping
{
▁Spi
▁Gallagher
▁alleviate
▁Rifle
▁Nawaz
▁strap
▁floral
▁Dane
rc
▁patents
▁detainees
▁Pel
▁Python
▁LinkedIn
▁Ent
▁pirate
▁Catch
smith
▁Hayden
nge
▁prom
▁sitcom
start
▁eagerly
▁overweight
gre
azi
▁hostel
▁Reese
▁1917
▁dome
▁posture
▁whites
▁sixty
▁Heidi
▁distances
▁bury
▁Hop
Make
▁prostitution
▁Kickstarter
▁grammar
▁busiest
,’”
▁staging
lift
▁intern
▁Photograph
▁Jew
▁definite
▁Flames
▁chanting
▁headset
▁rematch
bay
lessness
7.5
▁switches
wel
▁Chambers
▁discovers
▁Lahore
▁amusement
mani
▁Ahead
▁plots
▁leisure
▁totaled
▁colder
▁sequences
▁mechanic
▁PO
▁doomed
▁nowadays
nne
▁extremism
▁inspections
▁suitcase
bla
▁Productions
security
▁qu
▁mal
▁crater
▁Schneider
▁donating
▁2018-19
▁1-2
▁Spaniard
ção
▁Rookie
▁hurdle
arch
spec
▁administer
▁Norton
▁honorary
▁portraits
▁mathematical
–18
▁bailout
▁MN
▁tapes
uba
pod
▁descend
▁speculated
▁billed
▁Kick
bedroom
Live
▁weave
stat
▁rubbish
▁Paso
▁elders
▁Wizards
▁horrified
▁Hussein
▁Diet
▁Lambert
▁Rocket
▁wraps
▁Fact
vie
ight
▁intimidation
▁correspondence
▁Ready
▁Mayo
lang
written
ass
▁acceleration
▁translator
▁birdie
▁Testament
▁teasing
listed
▁Sexual
▁gestures
▁Marvin
▁Rosie
▁unhealthy
▁impairment
▁pains
▁Dani
▁Kindle
▁Vis
▁Flyers
graph
rac
▁jurisdictions
▁bash
▁trusting
lav
▁termed
▁stride
▁mimic
wash
▁$1.4
▁pest
▁Cannon
eal
▁recess
▁AN
oku
▁coveted
▁fortunes
3)
RM
hana
hil
▁Kap
▁IL
▁perfume
▁Burnley
nett
▁fury
▁bricks
▁2030
▁Ventura
▁neatly
▁resisting
Mi
▁Gwen
▁hurried
▁evenings
▁vigil
▁digit
usa
▁Rise
▁popcorn
▁32,
▁tram
▁interstate
▁sleepy
▁Sikh
▁inspect
phi
▁Wesley
▁dye
▁gardening
▁1890
Great
▁portray
fat
▁$2.5
▁Lancashire
▁diocese
▁fentanyl
▁Borough
▁WILL
▁laptops
▁electro
▁2.3
▁temp
citation
▁Brewing
▁gamble
mmy
▁24.
▁Amnesty
▁whiskey
▁Watching
”).
▁spoilers
amba
▁legitimacy
▁Derrick
▁prefers
Ben
▁infantry
BM
▁outfielder
Gu
▁Gui
▁sharks
▁forgetting
ators
▁advertisements
▁Bangkok
▁Swansea
ł
▁acknowledges
▁horns
▁Angus
.70
▁curves
▁penned
blue
▁Karachi
▁razor
▁amusing
▁batters
cru
jack
:05
▁policemen
▁extradition
▁Atletico
▁1997.
▁clutch
9.99
▁Naturally
▁guts
▁policeman
▁Compare
mil
brand
ą
▁Centers
▁reinforce
▁Sergei
▁Tweet
▁advertisers
▁crowned
Frank
▁assistants
▁240
▁corpse
▁Contest
▁soak
▁reassure
▁invites
▁Ang
▁intensified
▁peculiar
▁hostility
▁Kristen
mper
-1)
▁motives
hee
▁repay
▁thighs
▁mas
▁scanned
▁quoting
▁Tanner
▁bun
wyn
ça
pon
floor
▁transforming
▁tilt
▁café
▁champagne
▁1.0
▁supernatural
▁Sitting
▁herd
▁BY
▁Stoppers
-4)
▁fathers
▁guardian
yang
▁minerals
▁prominence
▁queer
▁Genesis
tum
LS
ín
▁NT
▁Marx
▁depicting
user
▁cites
▁oceans
▁audition
▁fox
▁220
▁chuckled
▁ventures
▁outdated
▁idle
▁weeds
zh
cre
▁generates
▁fringe
▁Egg
▁midday
__
▁boast
▁slit
▁€1
▁nutrients
▁Rae
▁Doing
▁300,000
▁startled
▁Pratt
own
▁decay
▁robotic
▁escalation
▁Alexandra
▁regrets
▁violently
▁trustees
ALL
▁speculate
▁Nadu
▁1925
▁Mnuchin
▁Kuwait
▁rotating
▁withstand
▁Duck
▁footing
fen
▁sneakers
▁MW
▁insurgents
WD
▁Associate
DD
▁109
▁Albion
▁Dwight
▁Hyundai
borne
▁Immediately
edu
HO
–3
igh
▁Kro
▁Conn
▁Dayton
▁Aero
▁timetable
▁receptions
▁ang
ija
holders
▁Dozens
▁Analytica
▁Morton
▁1933
▁envisioned
▁μ
Ja
owner
▁backlog
sters
▁modules
α
▁scrub
▁Aboriginal
▁indoors
▁Results
lap
▁generosity
▁Jammu
▁icons
▁Leading
▁believers
▁Users
▁hesitation
▁Musical
dos
health
▁gateway
▁bakery
Gra
▁blades
▁preacher
▁engineered
▁Sofia
▁Maha
▁tunes
Har
▁netted
▁saint
▁Emails
▁template
▁veil
▁tr
▁disagreement
▁SK
▁Hanson
▁Elsewhere
▁buddies
▁Parkway
▁travellers
▁Till
▁Lutheran
▁bubbles
Best
▁supervised
▁coma
▁2.6
▁austerity
▁nationalism
▁Mayweather
PI
dd
▁bogey
▁explosions
▁rightly
moral
▁reservoir
▁das
▁systemic
▁comprehend
▁rug
▁25,000
▁nightmares
.06
▁6-4
ager
tat
street
▁intimidating
▁Elaine
ân
▁policymakers
▁Gol
▁Thinking
▁Alert
▁2022
▁Lit
▁bean
▁Councillor
section
Su
▁opioids
▁Cars
▁Oscars
▁wines
Fa
▁Om
▁1947
▁protocols
▁MLA
▁heater
▁hazardous
.65
▁excel
▁tackled
▁cubic
▁1926
▁polish
trained
▁ensures
moving
▁Friend
▁semiconductor
GL
▁ray
▁muddy
▁Tories
▁Meredith
DOT
▁Greens
▁infinite
BT
▁scramble
▁Congressman
▁Webster
5)
▁plaque
▁Colo
▁mocked
oto
hang
Semitic
▁greed
▁sampling
▁puppies
▁trilogy
lets
▁05
▁Mint
▁ghosts
▁Rudy
boro
▁yummy
▁resentment
▁pens
▁Kol
▁crawled
▁warmed
▁Rie
sty
Did
▁tokens
▁HTML
▁Sinclair
▁dolls
▁200-
▁royalty
▁Casa
▁fumble
▁inputs
▁troop
▁Swa
▁Electronics
▁Engine
▁stink
▁Amazing
uel
▁recap
▁signaled
nit
▁Arrow
loss
▁Cr
▁RO
▁fer
▁$1.6
▁Fuller
▁distributor
▁arbitration
▁therapies
▁curved
▁Wear
ania
gn
▁uphill
.04
▁tightened
dio
▁Meadows
▁Gram
▁batsman
▁Gorsuch
▁tile
▁staffing
II
dog
▁UI
▁Claus
▁ACT
▁submissions
uti
ët
▁odor
▁Composite
▁dossier
▁Higgins
▁puff
▁groove
▁Elk
Michael
▁youngster
yama
▁authorization
▁Valerie
▁Gaming
vent
▁Coke
▁Kos
▁alt
▁qua
▁REALLY
vit
▁Courtesy
▁assemble
▁convict
.85
▁overlook
tation
kt
▁Ethiopian
▁politely
▁illustration
▁har
▁intricate
▁shrimp
▁Journey
▁Wire
▁CBI
City
▁Thing
dec
operation
▁mesh
▁DI
▁proceeding
▁exclude
?!
▁Esp
▁mogul
▁libertarian
▁Malawi
child
▁Cover
▁Benedict
Journal
▁missionary
▁astonishing
▁stimulate
▁prevalence
▁foil
▁restriction
▁HO
▁Ariana
▁Screen
▁Busch
▁lick
▁triggering
▁commentators
CNN
▁susceptible
▁turtle
▁Julius
▁unauthorized
stro
▁automaker
Jo
▁Ei
could
phy
▁Interest
▁differential
▁valve
▁Generally
▁allegiance
▁statutory
▁shaky
▁neural
Pi
▁unarmed
▁pier
▁freshly
▁Sing
▁1996.
▁Dil
▁discouraged
▁Bowie
-2)
assi
▁stash
▁geographic
6.5
▁Burlington
▁1923
▁FTSE
▁deadliest
▁Materials
▁yielded
▁ripe
▁Drop
▁alpha
▁Leone
▁explanations
▁publishes
▁tug
culture
▁Depending
▁homosexuality
▁neurons
▁Crisis
dividend
goers
▁limb
▁hovering
▁Barb
▁forgiven
▁Knox
▁5.5
▁disruptive
▁gentlemen
▁Spark
▁$32
▁2.8
rov
▁trait
ency
▁compartment
▁Wembley
▁atmospheric
▁Terminal
▁stemming
▁wig
▁mortar
▁aspiring
▁Bala
▁Sci
▁swipe
▁Brit
▁crow
▁smear
▁exhausting
▁shortfall
▁Philly
▁syndicated
▁Sisters
▁rumor
▁verb
▁manifesto
▁doc
▁chilling
▁Exxon
▁Lawyers
▁raging
coat
▁vector
▁architects
▁Automotive
▁modify
▁methodology
▁hesitant
▁folding
▁spared
Air
lag
▁Weaver
▁1913
▁astronauts
▁MU
▁$75
▁clarification
▁VERY
▁masterpiece
▁skeleton
▁praising
▁Bul
▁parted
▁Style
▁dean
fake
▁Pig
▁contributes
▁Barber
Pe
▁Lima
▁disadvantage
▁Boko
▁sideways
▁presentations
▁38-
▁offspring
zzo
▁Tunisia
▁supplying
▁divers
▁genres
▁(3)
▁culinary
▁Bis
▁tyre
▁sparkling
▁gluten
Cha
kai
lou
lton
nier
▁Ryder
▁betrayal
▁villa
▁trending
▁minded
▁improper
▁Qaeda
▁losers
▁PP
▁threads
▁conglomerate
▁noisy
headed
▁Mercy
▁flowed
▁zoning
▁Rosenstein
▁unavailable
▁embark
GC
King
▁invaded
▁disposable
▁Legacy
▁havoc
▁teaser
▁OB
▁Horton
▁traps
▁[6]
▁clone
string
▁humid
▁inspectors
▁sidewalks
▁Kirby
num
▁specifics
▁Disneyland
data
▁indications
▁Brenda
UD
▁Guyana
▁flagged
▁Marin
.'"
ime
▁inquest
▁Rap
و
▁shortstop
▁sacrifices
▁Det
▁Stern
▁Burn
lah
Net
▁Motion
▁witnessing
▁sings
Va
▁Portsmouth
▁Vanderbilt
▁cafeteria
▁brightly
▁legends
special
zero
▁immensely
▁pots
▁tiles
▁learns
rush
▁reactor
▁Disclosure
▁Bale
▁pensions
main
▁endeavor
▁Yay
▁Fen
▁unsuccessfully
▁Sep
▁06
▁Finch
▁primaries
▁durable
▁relegated
▁breakup
▁belts
▁HTC
▁mic
Smith
▁bumped
▁jackets
▁swam
▁Nile
▁Saunders
▁loser
▁rejecting
▁defeats
gren
▁Macy
▁gubernatorial
▁Coal
amente
▁Squad
done
▁socio
▁baskets
between
nah
rose
▁polymer
▁04
money
▁salvation
▁Fairfax
▁playful
▁Rover
▁Mala
▁morality
▁spoil
▁Supporters
▁elephants
▁breaches
▁frog
▁Caucus
▁rubble
▁compassionate
▁dubious
DB
▁bowed
.08
▁Philippe
▁Hornets
▁Alba
tell
▁dy
▁frantic
▁wakes
▁monopoly
▁Pleasant
▁flurry
▁chopped
▁Consequently
▁stirring
director
▁Hawk
▁simulation
▁explores
▁sanctioned
Mart
▁showcased
realDonaldTrump
▁Operating
▁dwell
▁kitten
hip
gay
▁Trading
▁Kraft
leaning
▁ref
▁evolutionary
▁stud
ect
▁Filipino
ONE
▁Pike
▁awoke
▁cheers
▁Wichita
gers
▁specializes
rrell
sided
▁relocate
gui
▁Giant
▁Infinity
▁Brittany
▁Monetary
▁plasma
ا
▁metallic
cultural
▁6%
▁fellowship
▁slashed
▁Dhabi
▁Boulder
▁Cove
▁creditors
т
▁commuters
▁1914
▁stoppage
▁BIG
▁reliever
▁disguise
Ver
д
div
▁interviewing
▁Afterwards
production
dh
House
▁renting
▁merits
▁Tennis
vio
▁ou
▁muscular
▁Omaha
▁cooperating
▁Promotion
gam
close
▁blueprint
▁pageant
▁backers
▁lime
mod
▁cannon
▁colon
pl
▁hangs
▁responsive
","
▁fibre
▁southwestern
vil
Art
expected
▁spelled
▁mantra
▁Grab
▁insulting
amine
▁objected
▁drafting
▁WITH
▁daring
▁Organ
border
Everything
beck
-27
mbre
▁Lot
і
▁Sector
▁Sk
▁viruses
▁recount
▁liable
..."
ops
▁Cream
▁discarded
ates
▁SEE
▁1990,
▁tit
▁commanders
▁CV
▁Elsa
▁Membership
many
▁roar
▁formats
▁armies
▁trumpet
▁Anita
▁notify
▁DL
▁Ned
OW
▁12,000
Rourke
▁unleashed
▁essays
▁Mam
▁elusive
▁erosion
▁stickers
▁Homes
▁Dub
▁fixes
▁tailored
▁scans
ear
▁Lilly
▁bowls
▁irrational
▁multitude
▁technicians
▁Brotherhood
▁bartender
AH
▁Violence
duc
▁Lei
▁descendants
▁Demand
▁marrying
.55
▁ineffective
▁kon
▁Paw
without
350
colored
▁Rao
▁Alvarez
▁penetration
▁sleek
▁Husband
▁decorating
▁ropes
Gen
▁Rus
▁quarterfinals
▁allowance
▁remnants
ssen
▁107
▁Opinion
▁Farrell
▁pinpoint
▁Spike
▁Mol
▁overlap
▁conquer
▁limp
lip
nov
▁Parkinson
▁chipped
▁Beta
▁beforehand
lake
heavy
dha
▁prank
▁shutter
▁bot
▁inexpensive
▁Territory
ril
▁Tas
▁ripple
itch
▁2.7
▁builder
▁slightest
▁reaffirmed
▁Writers
▁$29
▁cheated
▁Pure
▁Einstein
▁Firefox
▁Fiona
▁Giving
▁Sum
▁Dillon
▁Driver
shop
▁bunker
AGE
hum
▁inconvenience
▁sentiments
▁disappearing
▁1911
▁restraint
ines
terrorism
▁Bike
Ti
rap
▁empowered
▁Pogba
suit
▁Warsaw
▁exceeding
▁banker
▁obliged
ATION
ifi
▁Trip
▁Practice
▁informing
series
▁consultants
▁suicidal
electric
▁censorship
kra
▁advancement
▁Kiev
▁bind
▁Info
▁bombers
▁5-0
▁strides
FT
▁apologise
▁iPhones
▁incremental
▁TORONTO
▁Wilmington
▁Different
▁Alec
▁Edwin
▁cursed
▁Emery
▁squash
▁Vijay
▁font
▁honoring
▁RC
▁scrambling
▁newcomers
▁slots
▁11:30
▁captioned
ς
▁KO
fight
▁IOC
FP
▁predicts
▁harmless
cro
▁endurance
▁bullied
▁sped
Sp
rep
▁1994.
▁Tay
▁secrecy
▁McMahon
▁shepherd
ender
▁arson
LF
September
▁Gregg
▁breadth
▁6-0
▁Personally
▁favors
tics
agent
▁constitutes
▁Deborah
▁scrapped
▁velocity
▁specifications
▁captures
▁1995.
▁screenplay
▁Et
December
▁Prayer
▁Milk
Ca
▁Ecuador
▁Watkins
▁boutique
▁Bezos
▁stirred
CF
▁strains
/4
bbing
▁Buzz
▁Boyle
▁Pune
▁cardiovascular
▁Stacey
▁torque
▁registering
▁likewise
▁assign
▁35,
▁Tall
▁shores
were
▁vaccination
ن
▁swell
▁Geoff
▁Runner
▁introduces
▁dr
▁225
Paul
▁ecological
▁chuckle
▁buffet
▁fearing
▁garner
×
▁Cause
▁Tanzania
corn
▁parcel
▁Protestant
▁Minn
▁Oprah
▁scouting
▁fetch
▁lively
▁diverted
▁365
▁commence
▁Aires
▁visibly
▁Economy
▁consortium
▁Administrator
▁automakers
dhi
▁derby
▁taxation
pc
borough
▁Voters
.33
▁inferior
▁Prescott
▁tissues
▁NEVER
▁packaged
ault
▁Print
▁Hindi
▁Sochi
▁abide
▁indirect
▁graffiti
▁Buenos
▁caretaker
.17
▁fielder
▁cur
▁undergone
▁stripes
▁Xiaomi
▁Watt
▁113
▁crab
▁rulers
▁Stream
▁Koreans
.19
Green
tank
▁2025
▁Chocolate
▁seldom
▁qualifications
▁visually
▁stitch
▁contestant
▁Syn
▁speedy
▁Fuck
dad
witch
▁occupants
▁asteroid
▁Siri
▁Ronnie
aid
▁longstanding
▁eats
▁Contract
▁1987,
oko
facing
▁waitress
▁poorest
▁nitrogen
▁seasoned
fill
▁0-0
▁Concert
▁seminar
.07
▁Monk
▁1.9
▁practitioners
▁Matrix
▁disturbance
dry
here
▁fo
▁Serbian
lf
▁Giuliani
▁Amelia
▁feminine
▁fills
▁discoveries
▁UFO
▁Petro
llen
▁browse
▁YOUR
▁revoked
Se
pher
tant
▁ValuEngine
▁Breakfast
▁Supply
▁fusion
▁herbs
▁shave
▁02
▁Helm
▁Mata
,100
▁volcanic
▁primitive
▁Chick
▁Kang
▁starving
▁OUT
▁extraction
▁doping
▁indirectly
IDE
▁GoFundMe
▁NYPD
▁clad
▁bribery
▁Success
▁Byrne
▁Osborne
Qaeda
▁Caldwell
▁abdomen
▁sock
▁Fil
▁Ancient
▁Communication
▁Talent
oda
▁Granted
▁coloured
mill
▁Bancorp
▁Bash
▁simplicity
▁Harden
▁dots
▁Raleigh
▁OT
▁saddened
▁calculation
▁guarded
▁spice
▁hull
▁disconnect
▁Lone
▁Elena
▁harmed
▁$34
▁volunteering
▁fragments
▁7-6
▁chunks
▁Write
cle
▁imperial
▁brawl
▁amused
▁literal
▁bleak
▁Ingram
trip
▁surfing
pole
▁Flores
linger
▁luxurious
▁dividing
haven
▁Osaka
▁cling
▁Est
▁Weight
ske
▁cuff
▁34,
Sometimes
▁bullshit
▁pyramid
▁motto
▁beg
▁sliced
▁Lydia
▁adore
▁petty
▁interval
cip
▁readiness
900
▁precipitation
▁Citigroup
▁Rowe
ces
▁retreated
▁EST
▁Ama
▁Kei
aron
▁thanking
▁cloak
▁resembles
▁bumps
▁grains
▁stalls
▁WI
▁proactive
▁MM
▁Plans
▁Away
▁Female
▁savage
▁500,000
▁snapping
▁Cisco
▁Tank
▁awaited
walk
never
▁Cord
▁smack
▁Terra
▁Thu
-28
▁sq
▁coughing
▁Caesar
nee
▁Kensington
▁eternity
▁incidence
▁Stafford
▁nickel
▁Saul
cott
▁tumbled
1-
▁disgust
▁protector
▁HAVE
▁WAS
ulu
defense
▁Institutional
▁Sis
▁Bald
▁Ernest
▁LE
▁Suarez
▁glaring
▁Alonso
▁Bentley
anta
▁temples
▁believer
▁renovations
raw
▁prohibits
▁Goodman
lt
tent
tric
▁Hyderabad
▁McDaniel
▁Paige
cca
quist
▁sorting
▁breathed
▁modifications
▁departing
▁cheapest
VC
▁discounted
▁hurricanes
uer
née
▁fraternity
▁Lyft
▁drainage
▁overdue
▁onboard
▁strapped
cycl
▁tempting
WS
/5
▁Epic
▁£7
▁buys
▁plausible
▁Alibaba
▁fading
▁commercials
PH
▁Irma
▁vigilant
▁Pai
sheet
▁drying
▁widened
ready
▁geographical
▁bombings
ojnë
▁lithium
▁Cornwall
mini
▁Hur
▁unfairly
cion
▁Gru
change
hol
▁Gale
▁Bottom
oun
▁Meng
▁Larson
▁Heroes
▁nearing
▁unfolded
umb
ination
▁Canadiens
▁pneumonia
▁partnering
▁mankind
▁Comment
▁terminate
▁kicker
▁cohort
Will
▁outperform
▁presumed
▁scarce
▁Carlo
▁Jade
▁7%
▁apparatus
▁unanswered
▁Monument
▁piss
▁southeastern
▁trimmed
▁DOJ
Everybody
Coin
▁taped
▁Israelis
▁finalist
▁geared
▁gigantic
▁Sioux
▁liberties
▁Ada
▁abducted
▁cue
▁renovated
▁Flake
▁Doesn
▁champ
▁KS
▁McLaren
▁Teddy
▁authenticity
▁prevailing
▁Gerard
▁Lastly
▁Pacers
▁$80
▁Pos
▁Participants
▁Daytona
▁116
Che
▁Cynthia
▁dripping
▁provocative
▁Bernardino
▁organisers
▁unused
▁ال
▁Augusta
▁trivial
”—
▁Lac
gent
rl
▁(£
▁disappoint
▁sparking
▁flipping
▁Plains
clear
▁kin
lev
▁defensively
▁Panel
▁03
▁flashlight
▁operatives
▁Marilyn
▁swearing
▁Rays
ues
cla
▁murdering
▁Flowers
▁observer
▁Russ
▁onset
▁continuity
▁Blazers
▁personalized
▁meme
▁1880
▁scripts
▁passwords
▁Lester
▁bankrupt
▁glamorous
▁tummy
▁exclaimed
▁skepticism
▁Watford
▁reflective
▁ideals
▁improves
▁Hip
▁mint
▁assumes
▁RAF
▁Kiss
rai
later
▁Hoover
▁Cai
bai
▁Baba
▁COUNTY
▁Publishing
▁allergies
▁Toledo
setting
▁feasible
▁HC
▁Suns
▁(+
▁breached
▁Cathy
▁Eleven
▁canned
sample
▁barking
▁Ont
▁Carmen
▁canoe
performance
▁preceding
▁retro
▁coping
▁unfold
spot
▁Benson
▁behaved
▁conceal
▁pony
▁gala
▁staffer
▁relevance
▁Poli
▁Hazel
▁hardship
▁disciples
▁overturn
▁extensions
organ
▁nicknamed
▁Won
▁communicated
▁CL
▁selective
й
▁PTSD
▁interacting
▁akin
▁4:30
Free
▁privileges
▁commended
▁Rudd
▁123
rist
▁addict
iba
▁Gone
▁Trend
▁zu
END
▁Laden
forward
▁signaling
▁rum
▁assert
▁Banking
▁Nvidia
▁hygiene
▁Messenger
▁Ortiz
▁Krishna
▁packet
▁orphanage
little
▁terrace
▁Friedman
Times
▁Glad
▁pointless
▁Door
WE
▁feminism
▁distributing
▁Lines
▁flourish
▁IQ
▁franchises
▁milli
▁burgers
▁230
▁shakes
▁honeymoon
▁Teacher
▁liner
▁\\
▁Goa
▁spying
▁fundamentals
▁Dion
▁fend
▁Irvine
rp
▁combinations
▁grievances
▁“(
▁choked
▁ethic
▁carving
▁promo
chain
▁inherently
▁Rutgers
▁goddess
▁panties
▁Hut
▁Pant
▁Ul
▁Moran
▁ru
▁sticker
▁depot
▁Witch
▁respectable
▁constituted
▁murderer
lk
▁Ipswich
▁loneliness
▁downstream
nte
▁Jessie
▁Braun
cul
ffin
▁debit
cen
▁Uruguay
4.5
▁Rovers
▁Nairobi
oil
▁Huntington
▁angered
-1,
▁spurred
▁2021
▁onion
▁Dot
ρ
▁stringent
▁frenzy
▁mascot
▁37,
Part
▁Titan
hari
▁interrupt
▁considerations
ului
▁peaks
▁rehearsal
▁Amir
▁Dy
▁imply
▁deduction
▁sabotage
ahead
▁Thornton
▁jewellery
▁Crews
▁perennial
▁labelled
ige
▁Effect
dir
▁Forget
lak
▁Lay
▁overthrow
▁accelerating
▁Kazakhstan
▁Clarence
▁lieu
IX
▁Explorer
▁SMS
▁Deer
▁Veteran
pr
OG
corp
▁conflicting
▁socialism
▁jackpot
▁Kaiser
▁rallying
▁IRA
▁Este
▁plotting
▁contacting
▁amidst
▁Elm
▁Flag
LM
▁Kolkata
▁Salisbury
▁rift
▁dictatorship
▁outward
drive
▁misuse
▁2017)
English
▁agony
Gi
▁wee
▁Frankie
lene
▁Pharma
▁biblical
▁estranged
▁Kali
▁batted
▁Morales
▁Fle
▁san
ode
Although
▁bum
▁resides
▁accuses
▁cynical
▁SNP
▁fluids
▁Violet
▁1991.
▁Response
▁Plain
▁expires
▁bathing
▁mushrooms
▁Rwanda
▁makeshift
▁fastball
▁commercially
gold
TL
▁EL
rif
▁Rajasthan
▁rendition
▁spree
▁homage
▁membrane
▁ste
▁Sims
▁elites
xx
▁Kle
▁nodes
▁Realty
jin
▁wo
▁diploma
▁gasp
▁Downing
én
▁Clint
▁Shar
bang
▁dictate
▁edible
▁Melanie
▁imagining
▁fuzzy
▁quirky
▁scouts
▁Words
▁digest
Cola
IST
.38
ę
energy
▁Fighter
▁Butter
GM
▁miscarriage
▁barrage
▁raping
▁flashes
skin
▁roses
▁troll
▁Priest
▁Cecil
▁coupon
mber
▁whisk
▁fulfil
▁router
▁predecessors
▁emergencies
▁janë
▁Flood
▁hoax
▁stroll
▁Pew
▁Wick
.36
▁6.5
κ
2-
▁mund
▁decks
gging
▁Tau
▁circumstance
▁prioritize
▁charger
lund
firm
▁activation
▁Merrill
lea
▁Networks
′′
▁Alma
▁cholesterol
▁swore
▁$20,000
▁Charity
▁brutality
EB
▁imbalance
wp
▁Arms
▁bruised
▁Kri
▁rents
▁Burr
.67
▁Kala
▁internship
▁NZ
EG
▁Lara
▁Standards
▁epi
DM
▁violin
▁virgin
▁reassuring
▁lettuce
▁deferred
ook
▁spanning
▁voltage
▁Alto
▁intercept
▁FAA
▁Booth
▁PDT
Opens
kka
č
▁technician
▁varsity
▁Hussain
▁Nico
▁REIT
▁amazingly
▁Keys
-5)
▁robe
▁zombies
▁insults
▁labs
▁accumulation
▁subsidy
▁1986,
▁safeguard
▁Teams
▁veggies
▁Toni
shore
▁politic
▁wi
dder
ough
▁Toys
▁growers
▁intoxicated
▁windshield
▁platinum
lig
▁trader
▁diversion
▁Jacques
▁doorstep
achi
▁guru
▁scaled
▁ph
▁Founded
▁hu
▁chaired
▁Nottingham
▁allergic
▁Audrey
▁Bieber
▁revel
▁materially
▁victorious
storey
isse
▁uniquely
▁36,
▁tossing
▁interpreter
unda
▁2026
▁737
▁admiration
▁Ravi
▁Adobe
▁Variety
▁Alicia
▁conception
▁Cards
▁bleed
▁Baltic
▁Hearts
▁loosely
▁chefs
▁(30
▁dreaded
▁750
▁Copenhagen
▁caffeine
▁urges
▁Purple
▁wellbeing
▁boiling
▁Publications
▁Leaders
▁Georgian
drop
▁booster
▁Carbon
▁pipelines
▁Indo
erie
▁Cougars
▁insecurity
▁billing
▁forbid
▁utilizing
jer
▁VW
▁ducks
▁1992.
▁Investor
▁reap
▁Imp
▁Stuff
▁installations
Mac
▁Claude
▁Palo
▁Barbie
▁Tribe
logy
▁manipulated
▁Visitors
grad
▁poked
▁Patriot
▁giveaway
▁Nest
ы
▁Jakarta
▁Regard
gna
▁Buddha
▁enjoyment
▁Wedding
▁twists
▁Pelicans
▁hauled
▁Magistrates
▁beads
▁builders
▁gasped
Russia
▁Qua
▁Process
▁Sz
▁lever
▁salvage
▁Hatch
▁Leaf
▁bureaucracy
▁Stu
▁borrowers
▁Politico
▁Waste
▁paycheck
▁Alternative
▁Fallon
▁caste
▁insect
▁Gy
▁Murdoch
▁irrigation
▁slippery
rg
▁numbered
▁Midlands
EPS
▁databases
▁Locate
▁clinch
nica
▁anticipating
▁depicts
▁reluctantly
▁eruption
ilo
▁pero
should
▁1988,
▁Ore
wald
▁Keller
▁candid
avan
▁Clifford
▁Lexington
▁wiping
▁Yoga
▁Trojans
▁catalogue
▁cosmetic
▁authoritarian
▁outings
▁boiled
▁Anonymous
▁Riv
mur
pun
▁classics
▁freestyle
1.1
▁Wheel
▁vulnerabilities
▁Bournemouth
▁Ling
▁Presbyterian
▁[7]
lau
▁dispatch
European
▁novelist
Ju
▁Batt
▁Lena
▁Retirement
▁incorporating
▁Fleming
▁compression
▁republished
NG
▁BS
▁reproduction
▁$250,000
plate
▁revisit
▁outraged
▁selections
▁deposited
з
▁WATCH
▁dependence
▁rupees
▁unravel
▁FI
▁graft
▁Hoo
▁reside
▁diagnostic
▁wrestler
▁$200,000
▁outcry
▁enforcing
▁proposes
▁Kitty
▁linger
▁submitting
▁organisms
▁sourced
Israel
ref
▁Rim
▁Taco
▁Ethics
▁skipping
▁midwife
▁rob
▁poo
▁binary
agan
▁attire
▁canyon
▁dusty
,’’
0.5
▁Drama
▁Theory
▁PB
▁Berkshire
▁FedEx
Dec
:55
▁recounted
▁retrieved
▁landlords
ière
dling
.29
▁wonderfully
▁Relief
▁supremacy
▁PBS
▁lb
▁Bowman
▁listings
▁bruises
fy
▁cherish
hab
▁Mach
EV
▁Visa
▁Somali
▁bothering
▁Create
▁rag
▁Cameroon
claim
▁Bihar
▁earnest
▁shumë
▁Schedule
,'"
▁redemption
▁Saturn
▁Serb
▁Registration
▁totaling
▁Cyrus
▁owes
▁Blind
▁Rican
orn
▁Stakes
▁Nicholson
▁col
▁earthquakes
▁barring
ders
▁Fuel
▁pits
▁Ironically
▁tidy
▁Vogue
▁pint
▁Fifty
▁snowfall
▁Rot
worm
▁8%
along
▁Films
▁bur
▁Romero
▁ants
▁jug
▁Mayfield
▁#2
▁GPU
▁roadside
anza
▁earrings
▁oversaw
▁Jensen
▁Lap
▁toggle
▁weighted
▁alarmed
tical
▁Visual
emia
▁Jasper
East
enda
▁MAN
Matt
▁Heck
▁executing
▁tabloid
▁cockpit
▁apologised
significant
▁courageous
▁reps
tru
▁Neg
idge
▁bounds
▁190
▁cameo
attack
▁interchange
▁RS
▁Bow
mme
▁capsule
▁44,
▁Fab
▁assassin
▁stressing
▁Millions
▁114
▁£6
▁TS
▁attic
oga
▁Lawmakers
▁gra
▁airstrikes
▁Capitals
▁Tip
▁Pole
▁versa
▁Secondly
credit
▁Atlas
▁salute
▁vapor
▁opting
▁butcher
▁FT
$3
▁vocabulary
▁solicitor
▁Kho
▁exaggerated
▁Magistrate
agi
▁Skype
August
▁Pain
augh
lish
▁Guam
▁FB
▁hassle
▁trooper
▁decreasing
▁multiplayer
▁Cristiano
▁majors
▁1/3
▁sensory
▁Maker
▁Maritime
▁cues
▁flare
▁bulb
▁sermon
Assad
▁Frenchman
▁Fried
▁mosquito
Port
▁glare
▁shrug
▁Stamford
▁Clyde
▁liabilities
▁progressing
▁freaked
▁abandoning
▁Brick
▁grit
▁torso
wu
▁streamed
▁injected
▁ruthless
Book
–0
▁marketed
▁gripped
▁unreasonable
▁genetically
▁Lowry
▁Stocks
▁strangely
▁Kla
▁Mouse
Under
▁thumbs
yet
▁Holden
▁paranoid
▁rugged
▁decorate
▁GETTY
-29
▁hazards
Jan
▁Cad
▁catering
Canada
ifies
▁prescriptions
▁dealings
▁135
▁Bundesliga
▁McKenzie
▁Kosovo
▁CPR
▁advent
▁sewage
▁induce
▁"[
ounce
▁groundbreaking
▁nationals
▁unveil
▁Scan
▁scanner
▁Ugh
iq
Chris
▁cultivation
▁Carnival
▁illustrations
▁Hayward
grave
▁muttered
▁glitter
zin
▁sweating
▁crossover
iano
vari
vir
▁Tomas
▁poorer
▁reckon
tec
▁3.1
fect
▁intervals
▁flavour
▁Johannesburg
▁teachings
▁Mate
Brexit
▁MGM
performing
.14
▁refresh
odi
▁ATM
▁Broward
▁groin
▁glut
▁governmental
▁Manny
▁Rebels
▁chick
▁hardcore
unk
и
/8
USD
▁cite
▁insistence
▁Safari
▁Plc
▁[8]
▁suspicions
▁Eng
▁Evening
▁plaintiff
women
▁waived
▁mortgages
▁atrocities
▁monastery
▁1908
sports
▁Wise
▁thunderstorms
▁Root
throp
▁grinding
▁cho
▁vocalist
▁Dodd
▁inflicted
30,000
parent
▁curling
LU
▁quiz
▁haha
▁hut
▁hiatus
▁glucose
CN
▁luckily
.26
▁veins
kle
▁playback
bas
▁Farmer
▁stereo
▁mindful
utter
tool
▁Agricultural
1.8
▁visions
▁restroom
▁brutally
plane
▁Hin
LI
nard
▁deserted
▁acre
str
▁brow
▁disqualified
▁evenly
▁queries
kun
▁weights
▁Ple
▁Soros
▁Olive
ature
▁researched
▁Hulu
▁scratching
forth
▁41-
▁prophet
▁Wen
▁psychic
▁lions
▁Hancock
▁Prague
▁Pres
cis
heads
▁Sor
1%
▁dietary
▁irritated
▁weary
secret
▁inspirational
▁Huskies
▁kernel
▁residing
▁rationale
▁Employment
▁apex
▁lobster
▁standalone
dent
▁crank
▁cheque
▁distressed
▁anonymously
bid
▁avenues
▁CON
charge
▁Sheila
▁Defensive
▁Manor
▁Viktor
▁HQ
▁Sammy
▁triggers
▁3000
.02
National
course
trust
ό
▁Colombian
▁mural
aku
▁sexist
▁shooters
▁Avi
▁Audio
▁capitalize
▁AK
▁Advance
▁2021.
nda
▁Blvd
Back
▁Questions
▁empowering
odo
▁3.2
▁forge
▁drip
▁48-
▁joyful
▁examiner
▁marvel
ider
▁Suffolk
▁whistleblower
▁undermining
▁Warwick
40,000
▁Person
▁NV
▁FE
▁Gabe
▁soaking
als
▁spouses
GH
▁wedge
▁Thames
▁Looks
ws
▁worm
▁Warning
▁mouths
▁complainant
▁inventor
▁grapes
NB
▁Alien
▁Comm
zar
▁widening
▁39-
▁doom
▁Mud
▁impacting
▁Liberia
▁doubted
fired
▁financed
Cap
▁showcasing
backs
eme
▁keynote
▁comb
▁morale
Fox
▁Rum
oke
iger
Nothing
rra
▁postal
▁inhabit
▁117
vol
▁Sed
ل
.48
▁CFO
ulate
▁Cheese
▁Richie
vote
▁colourful
▁hourly
January
AW
WC
▁concentrations
▁Ou
▁Laurel
▁blackmail
▁nostalgia
phe
▁escalate
▁Enough
linked
AV
▁swirling
▁boasted
▁$25,000
inen
▁Goldberg
▁Lea
▁Kurds
▁empowerment
▁crep
ż
▁Marcos
▁pleasing
▁organizational
▁Tun
▁sincerely
▁magistrate
icia
▁facade
▁Barkley
▁illustrates
.37
▁Various
▁GL
▁1:30
▁Toy
▁foe
▁squirrel
▁Syndrome
▁Cassidy
▁snapshot
▁12:30
▁pillar
nus
▁Seems
▁motions
official
▁painfully
▁comprise
▁Junction
▁Blackhawks
ught
▁hugging
▁curator
▁Hanna
▁permitting
▁AF
touch
▁Reality
▁Tran
▁Nie
▁determines
▁1993.
▁Release
▁masked
SN
bow
▁hitters
▁dances
lying
▁Mei
umba
isë
▁Lev
tero
▁Napoli
▁Mavericks
▁Volunteer
▁segregation
image
▁crafting
▁($3
▁flaw
▁Romans
▁Sala
▁humorous
▁LIVE
▁mg
▁geek
▁Platform
▁entitlement
▁Cannabis
▁refinery
▁TT
▁Cali
▁Fix
▁fertilizer
▁overcame
▁heroine
▁vis
aja
▁whereby
8.5
▁inadvertently
▁arrogant
▁Twelve
▁Rodrigo
▁sanity
▁paste
▁VC
faced
▁spam
▁Nurse
▁Shay
October
▁Sul
▁bowel
sbury
vian
glass
▁collectors
report
▁rained
▁paradigm
▁dashboard
mma
▁envy
alla
▁lauded
د
appointed
▁diamonds
▁mutually
November
▁duct
▁plank
▁Ped
sler
▁Sonny
▁quantitative
▁Beaver
▁sprayed
▁businessmen
▁Schi
▁augmented
▁antics
lai
▁Jump
Cor
ppe
lite
▁drilled
▁chatter
▁Ashton
Ko
▁TC
▁Senegal
▁acc
▁newcomer
▁pantry
▁arrows
bill
σ
▁Candy
▁Own
iana
▁rattled
rog
established
▁oz
▁analog
▁railing
▁Killer
▁Bos
▁authored
jes
▁PLC
▁extinct
▁Suzuki
▁Fernandez
▁qualifier
▁Merry
▁Tulsa
▁quota
LAND
▁Marcel
▁delaying
▁partition
iling
▁imaginary
▁poultry
▁Liberation
gia
▁Sco
▁diluted
▁Gat
▁$33
▁Loch
ump
Col
▁Vance
▁MK
▁Somerset
▁carnival
▁negligence
existing
▁Volvo
▁Fischer
▁Warrior
▁waivers
▁weakening
struct
escu
▁pave
▁Flo
berger
eiro
▁readings
▁whim
▁Sup
▁advertise
kit
▁Huddersfield
▁peripheral
▁Madonna
▁Domestic
▁adulthood
▁patrols
▁Wai
▁Known
▁puppet
▁staunch
lessly
▁reacting
▁Rapid
▁Kia
rone
rim
▁rituals
▁deploying
▁ji
▁Parsons
ables
▁hypothetical
▁Rupert
▁Woodward
▁axis
GT
▁arrivals
▁wearable
▁disrespect
insky
▁hash
▁$36
▁Nationals
▁measles
▁erotic
▁Ulster
ifer
▁Reader
▁fences
▁Pun
▁conventions
▁quitting
pho
▁Lis
▁Brewer
▁discontinued
Home
ulating
▁PI
▁uncover
opening
▁mocking
▁Parliamentary
▁monkeys
▁Surf
xin
▁slices
ologists
▁dia
▁tolerated
▁bunk
lei
▁IF
▁pseudo
▁cheerful
▁arcade
▁Driving
▁Yates
▁Melvin
▁sunrise
▁Ton
Cat
ø
▁knight
▁CU
▁pasture
▁outsider
▁clashed
gmail
▁snatched
▁roasted
SK
▁vaguely
RY
pli
▁Sheldon
▁frantically
Te
▁pillars
▁dinosaurs
▁Bomb
▁bastard
▁philosopher
egan
bis
▁fortress
▁Ska
▁restless
▁Elias
▁Ratio
uddin
▁vows
bomb
▁transcripts
▁mins
ranging
▁outscored
▁espionage
▁sweetheart
▁cyclone
▁bonding
▁focal
▁slopes
enburg
▁Mona
LR
▁sta
▁Grass
▁Franken
▁cabinets
▁Thorn
esa
otic
▁Detectives
▁storing
▁McMaster
▁Bravo
▁mut
▁radius
▁Whilst
▁Costco
yk
bey
▁contraction
▁Blo
н
▁periodically
▁rabbi
▁1870
▁dangerously
▁blinked
▁Zak
▁coastline
▁fencing
▁eccentric
▁plaza
▁waiter
▁60,000
▁calmed
▁Stoneman
▁Vehicle
▁Rag
▁Nav
▁chalk
▁cricketer
▁neon
▁Lal
▁Customer
.03
blood
▁intuitive
▁deadlines
▁Smoke
▁Woody
Mc
▁Academic
▁bladder
▁Chavez
▁Dre
▁gadgets
Okay
▁binge
▁battalion
▁ceremonial
▁Nets
▁ensued
DL
nova
▁chili
▁reel
HP
▁spiders
▁Roof
▁Coastal
▁inspected
bing
▁inland
▁freshmen
▁withdrawing
▁Tropical
▁Scarborough
▁messenger
▁spreads
▁Loop
▁violates
▁$31
▁bravery
▁rewrite
▁$1.1
▁startling
▁ponder
arra
▁confronting
▁corrections
▁apprentice
▁onstage
▁longing
▁punishing
▁productions
▁Diocese
▁wreckage
▁pretended
▁mend
▁hover
▁engulfed
Du
▁Reyes
▁Carolyn
▁OC
▁UNC
▁employing
▁Rate
▁Kimberly
▁apologies
▁debating
▁inheritance
▁shove
▁Maddie
▁suppression
▁inaugurated
ident
fla
▁Rubin
vat
cri
▁Build
▁lifts
jpg
ión
▁nerd
▁legalized
▁Carnegie
▁DeVos
▁mundane
▁forearm
▁oriented
▁afforded
▁conceptual
▁Angie
▁hawk
▁nutritional
▁dared
▁NS
▁Sud
▁3:
▁fists
▁mysteries
▁flats
▁forwards
▁Cons
▁Lib
bug
▁Shim
pine
▁phenomena
▁controllers
▁Prospect
hui
▁relocation
▁deeds
zia
▁propel
▁Kee
▁intervened
▁methamphetamine
▁Creator
▁Monkey
▁sucker
▁1985,
▁amend
▁projecting
20,000
▁implant
▁registry
▁allergy
zza
▁bowler
▁enclosed
dig
Bi
▁accessibility
tner
really
▁implicated
▁Wie
▁telescope
writing
.28
ony
▁softer
▁squat
▁Tucson
▁trophies
▁Peggy
▁fiercely
kers
▁countered
tica
aca
▁strategically
▁Slovakia
▁bracelet
produced
▁Canon
▁veer
▁benefiting
▁condemning
▁Pul
▁Nah
▁WW
▁fue
▁Hate
▁pediatric
▁Leonardo
mind
▁Snapdragon
▁irresponsible
▁oddly
▁nanny
▁Tammy
▁Jasmine
▁7.5
▁rotate
▁Africans
train
▁Somewhere
▁sniff
▁Scots
▁insurer
.11
▁Copper
▁mil
▁Pes
▁nicer
▁diligence
▁Sie
▁Nichols
▁ripping
▁organise
3-
.12
Lu
▁rollout
▁paced
lian
▁attain
▁unspecified
▁butterflies
▁jockey
▁cruiser
ographic
▁Odd
dev
▁moth
▁bitten
▁onwards
▁Chaffey
▁concluding
▁Harvest
▁freedoms
▁seriousness
▁ornaments
▁tad
majority
▁moist
▁MAR
▁devote
▁Spartans
▁RI
▁bee
sc
▁ache
▁uneasy
▁GBX
▁2/3
oa
▁tipping
uto
▁dove
▁intimidated
▁maze
▁ACA
▁societal
cco
ctor
▁leftover
▁funnel
▁Bod
▁bible
▁elf
▁uneven
agon
▁Sons
▁contracting
!’
inal
▁muster
▁nailed
▁mammals
▁node
▁Eleanor
▁[9]
▁Lights
mba
▁Haz
▁Ming
▁prostate
▁seeming
▁dishwasher
ways
▁(22
▁celeb
▁confuse
gni
▁inherit
chip
▁hateful
nas
▁stabilize
▁Ariel
▁Everett
▁adamant
▁felon
▁offending
ake
▁Charge
70,000
▁narrator
▁Answer
▁geopolitical
▁MacDonald
▁ante
▁Push
cons
▁slaying
▁leased
▁Cats
▁145
▁Meta
▁unveiling
▁Elle
▁manufactures
▁CHICAGO
▁angrily
▁Bahamas
▁incurred
ried
▁Ricardo
blo
▁Wh
▁Duffy
▁erect
▁Cannes
▁militias
▁unrealistic
rite
▁Strait
▁congratulated
▁tendencies
▁BBQ
▁Ble
▁Segment
▁racially
▁sniper
.09
▁sculptures
▁cocktails
▁Neuro
▁Oaks
▁seventeen
.46
▁subpoena
▁devastation
▁lipstick
▁chewing
▁2:30
choice
▁southbound
effective
▁flap
▁Tale
▁erased
▁Pont
owitz
▁cone
ced
▁Venture
▁Barker
▁GR
▁Physical
▁carrots
▁EX
▁Lat
▁radically
central
▁cumulative
▁Fiction
▁Catalonia
▁brushing
shin
text
്
Mad
▁SIM
url
▁Slater
▁induction
▁resemblance
inski
bies
▁womb
NF
.18
▁restrained
▁Aw
▁incapable
▁5-1
birds
Take
▁buckets
▁scooter
▁slogans
▁Arabian
chel
▁approving
▁whining
▁feeder
▁congratulate
▁elevate
▁redevelopment
▁greatness
▁Nunes
▁Rating
▁homeowner
▁tract
ads
▁Present
▁Mercer
▁enact
average
▁URL
▁mailed
▁recalling
▁Olivier
▁Pistons
▁Frog
App
▁Stokes
▁predator
▁stresses
stars
-26
▁pupil
▁Baton
▁Quest
▁busted
▁Buffett
▁procedural
▁utmost
▁vodka
▁treadmill
▁Leaving
▁insurgency
▁beams
cess
▁pillows
-47
▁applauded
iso
eter
▁informs
▁advises
▁Malone
▁Confederation
▁Bosnia
icle
▁Romeo
▁Mandela
Saturday
▁PDF
Donnell
pos
ddy
.44
SG
▁archaeological
▁Katz
▁histories
▁apo
▁Theodore
▁northbound
Have
▁WS
▁ridden
▁waterfront
▁AMC
color
soft
▁ridiculously
▁1905
▁pertaining
▁Autumn
▁kanë
▁CNBC
1.4
▁subscriptions
▁Bridges
▁motherhood
tract
▁Hector
oco
▁denim
Sun
▁Muhammadu
▁fracture
▁deport
▁Abigail
▁spicy
▁hacker
▁infringement
▁poking
▁advisors
fur
▁Says
-6)
Sh
gla
▁$37
▁Individual
▁Daly
▁restricting
▁environmentally
signed
▁Goff
▁hopeless
▁Nora
▁Predators
▁passports
▁reclaim
▁2.9
▁racked
▁Fro
▁slender
▁consequently
▁Destiny
▁emission
▁seas
LB
▁TIME
▁meaningless
BU
▁remorse
▁astronaut
BLE
▁dearly
▁choking
▁Outstanding
▁Labs
▁Neville
▁Rust
itude
▁mourn
▁arising
▁Kolb
▁Belichick
▁Humphrey
▁constituencies
▁Buckingham
▁slamming
▁reunite
▁discriminatory
▁transporting
▁grieve
▁Foley
▁outsiders
++
▁Lie
THE
▁zoom
▁competitiveness
▁deed
▁TI
▁paw
▁sacrificed
▁Welfare
▁avocado
▁coherent
▁Kathryn
▁abduction
▁VPN
▁Jung
▁monumental
▁dismay
▁tutor
cover
▁insecure
js
▁cinnamon
▁Feinstein
▁Suisse
▁uma
▁trailers
▁Slowly
▁patriotic
▁Manu
▁abrupt
▁dem
▁Yankee
▁sluggish
▁Enrique
▁bisexual
▁Starr
acy
▁Zar
▁Conner
τ
▁Dry
price
▁PCs
▁kittens
▁Tr
▁richer
▁childcare
▁$38
▁funk
tura
▁dinosaur
▁wrongly
▁Anniversary
▁Judicial
▁Fresno
▁BlackRock
KS
osi
▁lush
dict
abil
▁(25
STER
▁gears
▁Sherlock
cade
▁conquest
▁supermarkets
▁gunmen
5.5
▁Sample
ace
nea
▁Waterloo
Benz
▁Seal
Rock
serv
▁Spice
dri
▁chassis
▁humiliation
▁Fusion
▁Muk
▁generators
▁Cooperation
▁flex
heat
▁expansive
▁breathtaking
▁pathways
▁dagger
▁Wool
▁DIY
▁Sec
▁stealth
▁stew
-50
▁marshal
▁particle
▁ginger
▁claws
▁uni
▁(21
▁attends
alia
▁paradise
▁enclosure
▁northwestern
dding
NK
▁crest
jit
mass
▁Fig
▁tones
gree
▁Clarkson
▁tumble
▁Michele
▁mast
▁roaming
Link
tori
▁Kendrick
▁rotten
▁unfinished
▁Colbert
▁sap
▁USDA
▁invade
▁Wolfe
▁Mackenzie
▁stumbling
▁Khloe
▁pleas
▁methane
smart
▁validity
▁detached
RN
▁smashing
▁Pond
▁inhibit
GI
▁cautiously
https
staff
▁Nikkei
▁Problem
▁Suzanne
▁Vet
▁pup
TOR
.34
▁exiting
tress
▁arresting
▁Walters
▁Wor
ür
▁Tier
▁42-
▁avalanche
▁unnoticed
▁3.6
▁155
▁Remain
▁Akron
▁restrictive
▁Archie
▁clubhouse
vant
sz
▁Display
▁bursting
During
▁fares
▁1906
▁Tak
▁Declaration
▁sturdy
▁Scripture
▁amassed
▁benches
▁downright
▁Newsletter
▁Javier
OA
▁diner
▁assurances
▁haunting
lash
▁baptism
▁Pub
/20
.88
▁Meat
ć
▁submerged
itan
conscious
▁weddings
gua
▁Sym
▁lashed
Watch
1⁄2
▁Lund
▁Recovery
▁gymnastics
▁bins
▁penetrate
▁missionaries
▁cartel
ió
plant
Sam
▁spices
▁notoriously
▁perceptions
iman
tens
kas
▁silhouette
▁soothing
▁confinement
▁MSCI
▁coding
▁motorcycles
▁playlist
▁differentiate
small
▁puzzled
▁Hou
▁youthful
▁Cora
▁sew
▁Colonial
▁leasing
▁Slide
▁Hutchinson
▁Copa
▁Traditional
▁heartbroken
η
▁surname
manship
▁banners
▁Sindh
▁CES
▁consolidate
▁Drag
▁turbines
▁joints
▁snowy
▁Pea
▁banging
▁McKay
ün
▁transmit
engine
▁authentication
▁landslide
▁Amar
▁Combat
▁inflammatory
▁ethnicity
▁Enterprises
▁Dome
stitu
▁reins
.16
▁medalist
▁faulty
▁prowess
▁Lockheed
▁TN
eat
▁slain
fact
▁“...
▁defects
▁extracted
▁Obi
▁Bil
dou
▁Hind
▁casinos
uv
▁Ambulance
▁Excellence
▁Facility
▁adrenaline
▁Assistance
▁nephews
▁Promise
sale
▁Duty
▁amp
▁massively
perfect
▁Oman
▁Haas
▁lamented
▁maple
▁Damian
▁moan
▁dresser
▁feather
▁upsetting
▁tandem
moderate
books
▁Gibbs
▁efficacy
▁interfering
▁optimization
▁Built
▁Strength
▁dreadful
▁Olson
▁outage
▁reacts
▁Patty
▁textile
▁stalking
songwriter
▁Dante
▁surrogate
▁Vettel
▁repurchase
▁Wireless
▁LT
▁Resorts
▁Sinn
glo
▁1907
▁ventured
▁Alright
▁Lana
▁consultancy
▁Abdel
▁Transfer
ott
since
rain
▁lookout
▁38,
▁hears
▁Complete
▁Millennium
▁urgently
▁backstage
▁exhibitions
▁Gerry
▁Lor
▁slur
▁noodles
101
paying
4-
dro
▁Ami
▁Chandra
▁Forty
▁bottled
▁Photographer
▁exercised
wei
▁FR
▁Canterbury
▁Ariz
▁vying
▁unseen
▁Shields
▁educator
së
▁hectic
▁rooftop
dit
▁exemptions
▁Sc
ket
▁3.4
▁Levy
Ri
Never
▁Quad
▁UBS
▁Pir
▁wrestle
motion
▁disdain
▁Quin
▁vandalism
▁jab
▁inject
▁rave
film
▁balances
▁thereof
▁repayment
▁deserving
▁Sasha
1.3
▁Vera
▁Marriott
▁Idol
▁Fry
▁impulse
cam
natural
▁gearing
▁Silk
Blue
▁Fiat
▁consoles
▁1979,
▁Mayer
TION
▁DHS
▁Cummings
▁Canton
▁educating
▁seamless
▁tutorial
▁echoes
▁hesitated
▁Verde
▁mare
▁Sage
▁exert
▁Croatian
▁bribes
/3
▁Viking
▁stricter
▁Normal
▁veterinarian
▁heartfelt
▁hubs
▁savvy
▁Connie
▁indexes
▁Kru
▁divert
ION
▁vampires
▁KI
sberg
▁Worldwide
▁BR
▁43-
clu
▁resorts
▁Dahl
▁Peyton
▁outages
▁Treatment
▁Phantom
▁nieces
astic
▁Span
▁yeast
bah
▁val
awaited
▁checkpoint
▁ram
▁informant
▁Fern
▁Guards
▁dime
▁Lauderdale
▁Relative
▁Marriage
▁yourselves
▁encrypted
▁sodium
▁sac
▁referral
▁delegate
▁greens
▁prominently
▁broadcasts
▁Sutherland
▁contemplating
▁obese
▁Articles
itu
oti
exp
positive
▁Amit
Read
▁Moments
▁enroll
▁mac
▁bowled
formerly
▁WH
️
▁misinformation
▁FEMA
▁Arn
▁monks
▁Famer
▁landscapes
▁dams
bl
▁underage
Thanks
hia
▁hoodie
▁bundled
▁Giles
fiction
▁Aqua
▁forcibly
▁ligament
DER
▁paralyzed
▁Expand
▁routines
▁Liv
▁fascist
▁Misty
▁Mono
Si
▁consultations
▁Fuji
▁Crimson
▁Luxembourg
rule
▁getaway
▁Emerson
▁Spe
dler
▁kitty
▁deception
▁Blackburn
▁cyclist
2.4
▁booze
▁Becker
▁morally
▁Howe
▁clinched
▁spontaneous
▁165
▁Cir
▁sinister
▁mythology
▁mercury
▁cardinal
▁ransom
▁Gunn
▁puzzles
zed
▁2015-16
▁kur
▁culprit
▁Album
”),
▁Koh
Billboard
▁impatient
▁mailing
▁buzzing
்
▁provoked
▁Newfoundland
▁librarian
▁Lennon
▁Countries
▁Henri
▁Pipeline
Chi
WI
ów
▁experimenting
ε
▁rethink
▁sen
Christian
xo
▁sweaty
▁towering
▁Stevenson
▁loft
▁Huckabee
▁Jeremiah
▁Ocasio
▁collateral
▁Pension
tir
▁shipment
▁nominate
iver
cular
▁Moreno
▁Fill
▁tabs
▁Notes
▁miracles
▁Jackets
▁Pap
tory
▁intensely
▁lad
▁Tee
▁RF
cutting
▁tampering
▁Namibia
rry
highest
▁reeling
▁vomit
▁assortment
▁Moines
▁proliferation
AZ
▁provisional
▁selfies
▁Shock
▁WB
dependent
▁Sixth
▁HU
▁tanker
▁está
▁commissions
▁pediatrician
▁prose
▁sanction
▁confiscated
▁kilo
▁Turk
Pri
cke
▁cartoons
▁creeping
▁behold
Police
seed
▁clusters
pentru
▁Vor
▁Downs
▁Buccaneers
▁Episcopal
▁Grizzlies
▁scenic
▁anguish
ffy
som
▁Pala
complete
rom
▁sensed
▁Mane
pha
▁User
▁4.0
▁Hole
Facebook
▁Klan
▁isolate
▁Application
▁Cri
von
▁GS
▁Tayyip
▁Paramount
▁crate
tai
oro
▁aspire
▁Advocate
channel
▁commuter
▁sobbing
Jack
▁swords
▁indulge
▁Ner
WR
▁accessory
▁Kh
▁Algeria
▁eh
▁Virtual
▁Forever
▁Anfield
High
▁piercing
▁Medina
▁Evelyn
▁schooling
BP
▁upped
rav
▁£8
gur
▁ambush
▁Dwayne
▁avatar
▁climax
farm
▁emerges
▁cuddle
▁70-
▁JC
▁dodge
▁bulbs
DY
▁craving
▁homosexual
▁mushroom
HE
Top
▁Server
▁118
▁Staples
▁Whitaker
▁bigotry
▁bandwidth
▁24/7
▁ovation
gress
▁64-
▁undermined
rad
▁Addressing
aza
sector
▁Alcohol
▁1982,
omi
▁Francois
û
▁Ernst
▁Communities
▁humility
▁expulsion
▁plugged
tig
▁3:30
winner
▁Tat

GAAP
▁TH
▁supremacist
▁antibiotic
.24
nde
▁arthritis
.39
▁Damien
▁senate
▁famine
▁Hamm
▁pioneering
legal
factor
Fo
▁Rally
▁bud
م
▁119
▁categorized
husband
reaching
▁bulls
▁abnormal
▁torment
music
▁Graves
cl
.13
▁donkey
▁horrifying
▁receipts
▁Christchurch
▁manga
VO
▁gin
▁duel
Je
wee
▁analytical
▁1989.
▁Zimmerman
▁Novak
▁pirates
▁Tribunal
▁pianist
▁subordinate
▁hemp
▁articulate
titled
▁Jaime
View
▁authorize
▁Hack
▁delve
▁outlines
▁Hyper
▁disgusted
▁aroma
rica
▁Career
▁scaling
▁MacBook
▁Polo
▁1968,
▁opposes
▁DD
▁Whale
▁robotics
▁possesses
resistant
alis
▁goodies
▁upfront
▁pivot
Tom
▁Helena
Share
RG
▁Camden
▁preach
▁cinematic
1.7
▁planner
ARD
▁drifting
▁Bulgarian
▁Kaz
Real
▁invaluable
▁Resolution
▁Religious
▁Fellowship
80,000
▁footwear
▁noteworthy
▁Rashid
quarters
▁Powers
▁Rei
▁Gab
hawk
▁mileage
▁Alberto
nc
▁Bharat
Point
▁adventurous
▁HUGE
▁willingly
Alex
Em
▁treasures
▁Into
▁ze
.66
due
▁Stones
▁Shark
▁Dong
▁emulate
▁applicant
▁calcium
▁crochet
▁Acosta
▁Bernstein
▁Desmond
▁Gracie
▁ATP
▁Volunteers
thin
▁berries
▁relaxation
HF
▁socket
▁Ox
р
▁Ing
▁Ventures
▁1984,
global
▁wired
▁chant
▁millionaire
▁Bron
▁intruder
▁cruising
▁domination
▁1909
▁kings
▁Zion
▁riff
vale
▁Divine
▁Mess
uge
▁dwelling
▁tumors
▁Erica
▁recommending
▁Permanent
▁WordPress
▁velvet
▁Twilight
▁Constable
serious
▁bending
mere
▁alot
▁Thom
ní
▁Cos
MENT
▁Americas
▁imprint
▁diets
▁upstream
▁Robot
event
▁chiefs
▁horribly
▁sterling
▁styling
▁gatherings
▁darkest
▁crappy
▁recollection
▁kneeling
▁ejected
horse
▁worms
loved
enstein
OO
▁barge
private
▁Borg
again
▁Engineer
toria
▁offensively
▁Salvation
uffer
▁1976,
▁Coyotes
▁Jonah
▁$600
▁caliber
▁Eyes
▁warranty
▁lays
Cortez
▁sleeper
pla
▁NYSE
▁cancers
every
ι
▁Napoleon
▁linguistic
poll
▁VIDEO
critical
oba
ifier
▁tho
▁presided
.21
▁attracts
▁dar
▁Lorenzo
▁unfolding
named
▁Lum
▁speculative
▁Geoffrey
▁cosmic
▁alarms
nya
▁121
▁woken
Being
ESS
▁decor
▁spinner
▁creations
▁Sarri
fun
▁Tests
▁reproduce
▁corridors
▁furnace
▁Rihanna
▁objection
9.5
▁Jas
lement
▁gusts
▁Joanna
.27
February
▁derail
tab
▁Khalid
ulo
click
▁Allow
1.6
▁Tobacco
▁WARNING
▁Shepard
▁decorative
▁surging
▁Outdoor
▁0.000
▁regretted
Wa
▁coloring
▁plumbing
2.2
▁Conrad
unit
▁Shiite
payer
▁12%
▁buff
rul
▁Underwood
Unfortunately
bottom
▁Letters
▁Nuggets
▁Gem
▁swarm
mara
▁WP
▁righteous
▁Kiwi
mia
▁evade
yar
▁Outperform
▁monk
▁thy
▁lateral
▁pops
▁Ghanaian
▁Legends
▁collapsing
▁vacancy
▁Oculus
▁writings
▁detour
▁goodwill
ndra
▁manifestation
▁stocked
pid
▁tilted
sensitive
▁squares
ono
▁DB
▁galleries
▁oblivious
▁Savior
video
▁provoke
approved
gee
▁newsletters
▁props
▁ankles
riot
▁1860
▁Underground
▁coating
▁Fitness
▁Added
eration
▁Coral
▁lobbyists
▁sided
▁tentative
▁Renee
▁Dep
▁Budapest
▁sanitation
▁Gail
▁Volume
▁eviction
▁Demi
▁Boot
rium
2018
▁peep
Only
Mon
▁kilograms
▁Mani
▁Hearing
tee
▁Aspen
ñ
▁canon
▁Drink
▁haired
▁CN
hine
▁foray
▁fugitive
▁knelt
▁Wheat
wor
▁Zachary
▁harvesting
kom
▁crave
▁dashed
▁glued
▁brightest
▁ABR
▁acids
oe
map
▁CVS
tl
ş
▁aluminium
▁striving
office
▁wards
inated
▁mills
▁subdued
▁Reeves
Play
▁proportional
nothing
▁rails
lani
▁Nim
▁buyout
▁Bauer
operative
▁bamboo
▁bounty
▁concentrating
ages
▁volley
▁shaved
▁OLED
▁Chevy
purpose
ece
BF
▁1904
▁thinner
▁Europeans
otti
▁Greatest
each
tex
▁Patients
▁1850
▁fragrance
▁iPod
dorf
▁openness
▁Hua
▁compile
▁Cassie
.76
Ab
asse
▁1967,
HI
▁1080
plo
ardi
▁Prop
▁wreath
▁Nutrition
▁casket
▁sect
▁fortunately
▁Calling
▁Fel
TN
▁inhabited
ா
▁Wynn
▁transcend
▁mop
▁Opportunity
▁scrimmage
▁prosperous
▁reconcile
Fire
▁1901
▁sup
▁Rin
▁mistakenly
▁Kohl
▁Clinical
▁lawful
aha
▁PEOPLE
▁5-4
▁Blasio
▁Betsy
▁Jaguar
▁Selena
▁addictive
▁Jolie
▁Bone
▁rampage
▁Rossi
▁curl
▁NGO
Pass
▁narratives
▁diminish
▁Manson
▁Drivers
▁gloss
▁eyeing
▁milestones
▁Cop
▁regulating
▁Frazier
▁Trouble
▁Turks
▁campground
▁customary
▁Pell
▁Cake
▁smirk
▁harvested
▁nationalists
▁Coun
▁skirts
▁126
2017
▁Coliseum
▁defamation
▁sizable
▁insanity
death
▁recon
▁tuning
IGHT
▁Tsu
-2,
▁shone
ctic
▁criticisms
wl
▁impressions
▁modeled
Dis
▁Sabres
▁Honolulu
▁jeopardy
▁Natasha
▁vinegar
▁Lately
▁eyebrow
▁ext
▁overshadowed
▁Chand
▁farmland
▁acclaim
▁reinstated
eze
▁Zambia
▁limitation
▁tij
▁Dyke
▁Tears
▁sy
▁incarceration
▁punitive
▁Speech
▁inventories
▁distractions
▁optimize
ör
▁owl
▁receptor
▁fluffy
lack
▁Yemeni
adas
▁frost
FB
▁cashier
esi
▁210
▁Wouldn
▁Juliet
OB
▁Ind
▁statistically
ulated
▁Prices
▁enclave
▁treasury
▁clo
▁strawberry
▁Artists
WW
▁loaf
▁kan
▁5-2
▁Garland
rounder
▁poisoned
▁proportions
▁TSA
▁playmaker
Chicago
▁Conduct
▁Franz
▁Def
▁2-3
INA
▁Diamondbacks
▁subdivision
▁surcharge
▁garment
▁Boise
stroke
▁incorrectly
▁withheld
leader
▁Crypto
▁PayPal
▁blouse
▁Pamela
▁Farms
▁$42
worker
yte
▁leases
▁Petr
▁menace
▁Lem
▁thwart
▁shameful
▁WAY
qa
μ
▁linen
pas
▁Angelo
▁handset
lbs
quet
▁Gin
▁shortcomings
▁jewel
1.2
cycle
▁recorder
▁GH
▁occupying
▁chord
▁evidently
Health
1_
▁FO
▁Hum
▁Ellison
▁Hmm
▁Bing
▁BYU
bio
▁Burnett
▁myths
▁indicative
▁Correctional
▁resolving
▁vagina
common
▁promoter
▁Wizard
▁mutant
covered
HT
▁admin
▁tallest
▁Gunners
▁abolished
▁devised
▁exported
▁Consumers
▁undo
▁Spy
tight
eff
▁Ear
▁preaching
tman
▁Blizzard
▁NW
▁1903
.49
▁palette
▁Goal
▁WWII
kë
▁spans
▁payload
▁pledges
▁Arun
▁Maps
▁$39
lander
▁exquisite
▁Liberties
▁këtë
▁unconventional
▁Pearce
▁Gateway
▁caregivers
▁Petty
▁vend
▁improperly
▁bacterial
▁tame
▁Crane
▁conquered
chuk
▁prevailed
▁suppressed
▁Najib
▁Lafayette
▁fry
entry
ère
▁plc
▁retains
▁Kou
iate
▁str
▁bribe
▁650
combe
▁granite
▁Headquarters
scenes
▁Burgess
к
▁·
▁han
etto
▁om
▁Trout
▁cooled
▁Bowen
▁Harare
▁NH
corruption
▁Greenville
▁coop
▁Schiff
KO
▁anchored
250
▁camel
▁ty
▁ubiquitous
▁Graduate
▁Kuala
zal
harm
▁Jul
▁FS
10,000
▁deteriorated
▁44-
▁Barca
▁simplest
▁outset
fashioned
▁Vir
▁AV
▁nervously
▁memorandum
▁Naples
▁grease
vik
▁peas
anni
▁EN
▁vigorously
▁haunt
▁Mustang
gos
▁worthless
▁£10
▁troopers
▁constructing
▁Faculty
▁Sawyer
▁Sigh
▁trolls
▁Southeastern
.31
▁arises
▁Levine
▁Shiv
▁exploits
▁foes
▁Address
▁PPP
▁claw
▁reactors
▁giggled
git
▁homered
▁Wentz
plex
▁defiance
▁longevity
▁brunette
wala
▁Abuse
▁Pull
▁dugout
▁pilgrims
-70
▁Livingston
▁75%
▁String
payment
▁3.3
▁tailor
▁Bake
▁Mang
Image
▁severed
▁Fulham
▁Garner
▁2022.
▁conditional
▁soy
▁accumulate
script
▁$65
▁perched
▁Shelton
▁affluent
▁ancestry
▁consolation
▁melody
▁repetitive
▁superficial
▁medicinal
▁announcer
▁Edison
▁washer
▁Shopping
wat
ра
hhh
▁Dress
before
▁Archives
▁blatant
▁Estonia
▁Lemon
▁Spacey
▁coincided
▁HK
▁Bot
▁hindsight
▁donned
▁Magnus
▁cider
▁1983,
▁intrigue
▁tripled
▁apprehended
▁Janata
▁fatty
.77
▁wand
▁Xiao
▁classmate
▁indecent
▁1902
▁RSS
dai
▁algae
▁Manufacturers
▁coordinating
▁existential
Both
▁[10]
▁blended
▁Laurent
▁knowledgeable
VM
▁invalid
▁repercussions
▁Written
▁stockpile
▁Syed
▁peel
▁39,
▁sustaining
▁Blacks
▁symptom
ml
▁Carmel
▁clot
▁Firm
atta
▁Wife
▁Gap
▁Bam
▁Nut
▁immortal
▁pacing
kawa
▁DT
▁Cullen
obi
▁è
hero
▁sweatshirt
л
▁Herb
▁Lithuania
▁fabrics
▁270
▁crystals
▁Concord
▁Nguyen
▁Frances
▁Shanahan
▁auditorium
dominated
eating
▁horsepower
local
▁Landry
tten
bir
Little
120
▁3.7
SEC
NER
▁coated
▁TX
▁Noor
▁rabbits
Having
▁Collier
▁Thought
▁deposition
▁Disaster
▁Equipment
▁Randolph
▁Crescent
▁Ajax
▁entice
▁bpd
haus
▁HOW
▁wrestlers
▁DAY
▁Fiji
▁profoundly
▁wounding
▁upbringing
info
▁annoyance
▁narcotics
▁ministries
▁blitz
▁Wakefield
▁Janeiro
▁Congratulations
▁Forrest
▁Banner
fulness
▁Bah
▁inflated
▁marches
ality
▁Arbor
/7
RU
▁scalp
▁Porto
▁grandpa
sent
▁Enlarge
loo
▁disposition
▁Weston
Their
▁Tibetan
rm
▁snag
▁resembled
▁establishments
urge
▁ratios
▁sage
much
▁Engel
▁sane
▁evidenced
▁jars
▁McK
▁frank
▁straps
▁biking
▁Veronica
▁exits
▁Chung
2019
▁malaria
tering
▁unborn
▁dragons
eria
▁heartbreak
▁wisely
▁Barron
▁redesign
▁Kimmel
▁fest
▁Billion
▁treasurer
▁Amtrak
▁Voting
▁lamps
▁stylist
.96
▁specs
▁53-
▁purge
γ
▁scripture
▁KP
▁Macedonia
▁runaway
▁Lexi
▁recognizable
▁reluctance
▁distrust
shu
nagar
uld
▁leapt
▁awaits
anger
▁overcoming
▁3.8
▁Md
AK
▁bananas
▁passages
▁Method
▁1945,
▁Corrections
▁navigating
denuclearization
▁Blackpool
▁perks
▁mor
▁newsroom
▁crane
▁accountant
▁Clan
▁Shia
fed
▁Guest
▁override
lent
drug
eda
▁Ard
▁draining
▁Clive
▁stimulation
▁twenties
▁matrix
▁PARIS
bh
▁blasting
▁Astro
▁Cookie
idade
▁orchestrated
▁walkway
ope
▁Brom
▁hampered
▁Videos
▁ignited
▁malls
▁Reilly
giving
▁coined
▁Geographic
/9
▁sloppy
▁imperfect
▁Machado
▁$49
▁meteorologist
▁stun
▁Keystone
▁dismal
▁envision
▁1990.
▁validation
▁Poe
▁pajamas
▁kayak
▁overseen
▁campaigners
▁ceramic
▁Isabel
▁textbook
▁outlaw
▁disco
evil
έ
▁Examiner
▁Buchanan
▁issuance
▁dungeon
▁Numerous
▁LTE
▁roam
▁gripping
8)
▁eu
▁lineage
▁-1
bru
hun
▁hammered
▁Sunset
▁sexism
▁Kinder
▁cellar
▁thirst
▁shouts
▁Stranger
▁nie
▁Rana
▁Worcester
▁gruesome
▁rust
▁casualty
thank
▁Hari
aci
▁Sonic
anu
mut
п
induced
▁wartime
▁Points
designed
▁pundits
▁alphabet
▁trench
▁Alas
▁collegiate
▁ecstatic
▁blacks
.23
▁Olsen
▁radioactive
▁bred
▁dedicate
▁Oslo
▁mosquitoes
▁tuna
▁DP
▁Vine
▁mutations
▁PH
▁Olympian
▁Session
▁132
▁Sense
ação
vier
▁brightness
▁Naga
short
▁Assessment
▁Horror
▁monsoon
ht
▁PST
▁terminals
▁Antarctica
▁Vita
▁122
▁drawers
▁95%
▁lunches
male
▁Yun
▁stocking
▁substantive
▁crackers
▁tur
▁Coordinator
▁fingertips
sdale
▁disciplines
▁Stro
▁Carlton
▁armored
oop
5,000.
▁ISO
▁adolescent
–4
▁55-
sko
▁Iris
ABC
PU
▁Dominion
while
▁antitrust
▁1969,
released
▁favoured
▁nipples
▁Zika
▁Aidan
▁dysfunction
.32
▁pawn
▁NAB
▁Carla
dur
rar
▁Glover
issue
▁borne
▁kë
▁watershed
stru
▁num
posed
▁pancakes
▁ominous
▁blush
▁supervisors
▁Shri
▁Guru
raising
▁Threat
▁compulsory
▁deteriorating
▁exploding
▁pregnancies
▁raffle
▁incarnation
▁capacities
Team
▁mildly
▁46-
.89
▁Yong
ely
▁Pak
OH
▁stain
▁vitamins
▁counterfeit
▁OTHER
▁stature
▁Arabs
▁Chopra
▁Harding
▁hotter
▁Olympia
dock
▁coincide
▁Seg
▁Chilean
▁Mandy
▁precautions
probably
▁outlining
▁Beyoncé
▁Ubuntu
▁fascination
▁displacement
▁Fulton
armed
▁campsite
▁reassured
.79
▁incorporates
▁Fruit
▁planners
▁domains
▁pla
▁atoms
▁DUI
▁persisted
▁Sang
▁Scheme
▁GC
eke
▁setbacks
▁feasibility
▁pervasive
▁plateau
▁foreseeable
▁rejects
▁propelled
▁wrists
jal
▁downed
▁legalize
▁Tie
▁$55
▁GET
▁overflow
▁Sheridan
▁nicotine
▁soften
▁airplanes
▁Eaton
GG
▁spies
▁petitions
▁wh
▁sha
olog
ró
▁modification
▁nationality
▁Barnett
▁diarrhea
▁Kasich
▁Esther
▁revise
▁operative
▁sketches
bats
izes
.47
▁stamped
▁banquet
tv
▁Sn
▁frustrations
▁collects
▁Evidence
▁autobiography
▁autistic
▁jelly
▁Kobe
▁Miracle
▁Në
▁dispatcher
▁filthy
grove
ū
▁144
▁Gender
▁forecasting
▁reef
▁Kidd
▁themed
▁GW
▁disconnected
▁downfall
▁1986.
▁Songs
▁Went
▁enzyme
WO
▁proclamation
▁hamper
▁Rouhani
▁modular
▁Herrera
▁Lottery
▁Forecast
▁Broken
▁64,
▁Witt
▁char
▁furry
▁Tess
direct
uca
▁sightings
▁Sm
▁Silent
▁Abel
Mike
need
GF
▁1980,
Wi
▁Nordic
ा
▁Helsinki
▁adversity
▁intimacy
▁strawberries
▁Dexter
▁truce
▁Alpine
▁$2,000
▁gangster
mari
▁"(
▁Nikola
rab
▁tremendously
▁icing
Op
cup
▁documenting
Gar
▁id
▁Religion
▁grazing
("
▁stainless
ś
▁compliant
▁Becca
▁allocate
▁Everest
▁ticking
pose
▁Hide
▁Understanding
▁messing
extremely
▁paints
lib
▁Chal
birth
▁Letter
▁400,000
▁Guzman
▁Resistance
▁Contemporary
▁Bid
endo
▁negotiators
▁emit
nat
▁dispose
▁pies
▁Traditionally
▁Embed
▁analogy
▁tangled
▁illuminated
▁vie
bler
▁directory
camera
▁AHL
▁actresses
▁nuisance
▁spaghetti
▁sentimental
▁liaison
▁faux
▁Gam
▁spikes
tale
▁timeout
▁MH
▁boiler
modern
▁Negro
▁honours
▁Sami
▁burglar
erry
tari
▁EUR
▁instituted
▁Analytics
▁hospice
▁bipolar
▁palms
▁organising
▁Sharing
▁Cage
▁typo
.68
BY
mbi
▁Shea
▁landfall
mple
cken
▁recycle
▁Cate
▁1⁄2
▁helmets
><
▁peril
▁suspense
▁Offer
inho
PK
▁clinging
▁peppers
Before
▁amnesty
▁Pandora
▁Admission
▁mistress
▁treason
▁Winner
▁Shelley
▁colonel
-200
Sal
▁1974,
▁Wynne
DG
cate
▁Certain
▁alliances
▁stereotype
itor
kor
aunt
▁9%
▁pilgrimage
▁Reggie
▁Gould
▁Throw
▁showered
▁Mou
▁playwright
personal
▁UW
▁Tol
▁inactive
yen
Ge
▁correlated
▁watering
▁booths
▁Swim
▁KT
song
▁trustee
▁verbally
▁NGOs
▁sediment
▁grappling
▁Bluff
▁beacon
▁dissolve
▁saturated
▁hunted
▁Abd
▁deepen
PER
▁buzzer
▁caves
MW
Post
ی
▁Exhibition
▁Bedford
laden
carbon
▁Wilkinson
▁cupboard
▁Shelter
▁Angle
iers
▁recreate
▁Tul
Wow
▁sneaking
gene
▁Welles
▁Lunch
▁Readers
▁progresses
▁scooped
2.7
▁fertile
▁dealership
▁shred
▁connector
blog
▁(4)
▁Bau
▁hinder
▁habitats
▁prim
NU
▁sobre
▁Doll
▁culturally
▁Phi
▁Mori
▁succeeding
▁Solid
dress
▁twisting
▁Rowan
▁astounding
▁Regular
illi
▁OP
▁Andreas
▁Putting
▁Hel
▁prized
▁gems
▁plastics
▁cer
comp
▁CFL
▁Applications
▁Brees
ady
▁Simone
shed
▁cosmetics
▁Sonia
▁Mobil
π
60,000
▁tainted
▁Tad
▁meteor
▁cornerstone
▁detrimental
▁1898
2.8
lac
/6
я
▁atheist
""
▁Combined
▁embattled
▁seismic
▁Exactly
▁Cayman
phil
▁Bunny
▁Citi
▁4.4
mobil
▁RPG
▁fray
▁goose
tani
▁Rabbit
▁shortened
▁typed
nate
▁McLaughlin
▁Lucia
▁Mao
online
▁COO
▁digs
▁Apr
▁prudent
▁decidedly
▁Dreams
▁calming
▁veterinary
▁Beacon
▁futuristic
▁screenings
▁Meadow
▁Beard
▁Steph
▁mash
▁distorted
▁giggle
▁fearless
▁chap
▁Belmont
▁safest
▁Statement
▁outpost
▁mischief
▁Shit
▁Mackay
ales
nja
south
▁Northampton
▁concede
▁breakaway
▁cylinder
packed
▁favourable
▁Ober
▁Feed
3.6
mounted
igen
▁stump
▁JA
▁Been
▁turtles
▁Huffington
▁brunch
▁framing
▁Spieth
▁mould
▁Adviser
-80
▁muted
▁bombed
▁Albanian
▁Slow
▁fielding
▁gracious
.56
ished
▁definitions
3.3
▁unbearable
▁bunny
▁tallied
▁reimbursement
▁specimen
ility
▁1988.
▁dusk
▁−
eren
▁Performing
Featured
Copyright
▁Maz
2.1
Power
▁Berger
▁dictionary
▁Saddam
▁Norwich
▁Avoid
urs
▁Thur
dead
▁Langley
▁1981,
▁Aki
except
▁guarding
▁vacated
▁discredit
CON
▁standardized
▁censor
duce
▁Benny
▁earns
▁anyways
▁Physics
▁reversing
ener
▁distortion
▁Psalm
▁Strictly
▁declares
▁avenue
▁dipping
▁exceeds
Care
their
tian
▁Homer
▁Roo
▁husbands
▁rocker
ANG
▁Peoples
▁executions
▁birdies
▁Ferdinand
▁happiest
▁onslaught
▁Coroner
▁Lumpur
▁chop
▁Cent
▁Percy
▁Entry
fel
▁Sunrise
▁crease
▁insulation
▁hound
▁EVER
▁Mana
▁Folk
ți
▁draped
▁$1.7
wrote
▁Zac
ogen
▁Orion
▁roaring
▁erratic
▁Antoine
▁collaborating
▁knob
▁Schu
▁Doncaster
▁Grassley
▁TJ
▁mais
▁oval
▁swimmers
ά
▁Zee
▁outbreaks
zio
▁iteration
▁canine
wang
▁residences
▁forwarded
tek
▁Baxter
▁Cherokee
▁inclination
▁Alyssa
▁arranging
▁Merchant
▁Idlib
▁Giovanni
▁Din
▁coworkers
▁1978,
▁understatement
▁endemic
.78
▁evoke
▁Stacy
▁2050
▁bicycles
▁Assam
litre
▁backbone
▁Copy
▁oils
▁Dock
▁YES
▁babe
▁burgeoning
.74
▁integrating
▁provocation
▁kidnap
▁1975,
▁Woodland
▁dismantle
▁Couple
▁universally
Peter
mination
▁bob
ively
▁QC
▁follower
▁naps
nh
▁reelection
▁Sib
▁Monsanto
▁diversified
▁Glory
▁Sinai
▁naughty
▁PV
saw
▁biscuits
▁Humane
▁chicks
usually
▁5000
centre
amu
▁invoked
hou
▁Harmon
▁applaud
▁cavalry
▁influenza
▁tumour
▁wrath
▁Nexus
▁nods
.42
▁oxide
▁Regulation
▁smokers
▁wink
pool
▁striped
▁bla
▁deflected
-60
▁Highlands
▁dishonest
▁lunchtime
▁shack
▁welcomes
rib
▁bathtub
▁Mitsubishi
▁Havana
▁differing
▁manageable
▁Gym
hom
▁35%
greg
Ah
▁$30,000
dot
Canadian
▁Pod
▁tyres
Class
▁NAACP
▁digitally
▁fetal
▁ninety
▁submarines
▁Claudia
▁Interview
lined
▁lament
▁proponents
▁bowlers
▁infusion
graphic
iter
▁embargo
▁McIlroy
▁taboo
▁ordained
▁Degree
▁Sylvia
▁flea
▁vow
▁Grim
▁upscale
▁gladly
▁Adel
.’’
give
▁Whip
▁Jeb
▁Nano
▁licking
▁Slideshow
▁4:
▁carve
▁downloading
▁rusher
▁Papua
▁aching
cop
▁chanted
▁notched
360
Nobody
▁circumvent
▁Daryl
jam
▁waterfall
Long
▁influencing
▁Gruden
emp
▁scrape
▁psyche
▁slips
▁toppled
▁Alvin
ibly
▁spilling
▁gram
burgh
▁Vit
▁accredited
▁turbulent
▁Dairy
▁Plastic
▁journeys
▁LCD
chlor
▁Telecom
Boy
▁gunshots
▁risking
▁Sena
▁UPS
▁Aren
loving
▁knots
▁emptied
▁caramel
▁Jacqueline
▁handicap
.41
▁Hulk
▁fashionable
▁complicate
▁1972,
▁inquire
▁turbo
cord
▁armour
nath
borg
▁peered
▁demographics
▁Ballet
▁2023
▁acquaintance
▁McGrath
▁McKenna
▁Wigan
▁sushi
1.9
▁emoji
▁trendy
2.6
▁hypo
phan
▁pixels
▁Stormy
nim
▁exploiting
▁lessen
▁Saban
▁Albuquerque
▁Anglican
▁Humboldt
▁Judaism
▁Skripal
▁Vampire
▁intrusion
dance
▁Dundee
kwa
▁Hedge
▁Darling
/2018
.98
dica
▁Bard
yp
uku
OE
allow
▁fiance
CG
▁dinners
▁roared
▁Digg
▁Flower
▁discriminate
Ber
hay
IES
▁ticked
▁ACL
▁Avenatti
▁pudding
oud
▁Bak
▁Mazda
▁Isabella
▁agitated
fort
bc
.84
Bra
▁Chau
tico
2.00
▁harassing
gian
James
▁WIN
▁instructors
prop
▁Trinidad
▁neurological
▁Strauss
▁fortnight
tested
▁championed
▁programmed
▁hallmark
▁knowingly
▁trot
▁woodland
rer
▁Reason
amos
hra
▁apt
▁Partner
▁cro
▁specimens
▁frequencies
▁hydraulic
▁cocoa
▁woven
▁rentals
▁comfy
▁Kieran
▁compel
▁Atkinson
▁seamlessly
▁logistical
▁(26
▁LC
▁Taj
▁Sparks
Chief
girlfriend
▁seam
rino
▁CPS
▁Yoshi
▁Hands
4%
rne
▁drown
▁asphalt
▁pharmacist
▁plethora
▁plunging
▁sensing
▁Workshop
▁incarcerated
▁charismatic
▁Terrace
▁[12]
▁stuffing
▁STEM
.62
▁wooded
▁checkout
tsu
▁engages
▁sar
▁precaution
▁hillside
▁styled
▁rescuers
▁plantation
▁lobbyist
▁jog
Nov
▁Wat
▁47-
▁mediocre
▁Apache
▁synthesis
▁Addison
▁Vest
▁Smash
▁Judith
▁Alli
▁toddlers
dden
▁disagreements
▁novelty
▁clutter
▁Tesco
▁Photography
▁Colton
▁IX
akis
fighting
▁Bain
▁CLICK
▁ambient
▁Rogue
▁SAP
▁Ferry
▁Zhu
nga
poli
▁coolest
▁alum
▁peg
är
▁Kis
▁smelling
▁mole
▁Ramaphosa
▁precursor
▁whirlwind
▁saliva
▁Makes
▁Surprisingly
▁spatial
▁baths
▁whichever
▁Goodwin
ás
▁bouts
▁Measure
▁(24
–6
▁medically
▁resembling
▁residue
▁disappears
▁og
▁Treasurer
▁absentee
▁Animals
▁É
ு
▁Medi
▁Rebel
▁revamped
trial
▁4.2
▁thaw
▁railways
▁2023.
▁McKe
▁Literature
▁McDermott
▁Smollett
▁obsolete
▁misguided
▁Anthem
▁sandals
▁viability
▁Hague
lord
▁seals
yana
awi
▁affirmed
▁packets
▁Ally
genic
▁Investigations
▁rebounded
▁IM
.87
▁latch
▁baker
▁tracker
▁Stephenson
▁Cumberland
▁Kelowna
▁Quincy
▁unheard
moto
▁Childhood
▁Tiny
▁Cheney
▁holistic
▁Payton
arily
▁mastermind
thus
AY
▁gazed
▁understandably
▁excerpt
Call
▁sandy
▁bulletin
▁dan
▁Sixers
▁Cadillac
▁Cummins
▁Memory
▁systematically
▁documentaries
▁ecosystems
alone
ojë
▁commune
▁injections
▁Barrow
nning
enti
vehicle
logical
absolutely
▁wherein
▁tuck
Market
▁Sanford
almost
▁haze
▁captivity
▁humiliating
▁prestige
▁Celebration
▁HSBC
▁Sustainable
▁Password
▁Request
▁doubtful
▁mosques
▁whispers
▁quartet
▁Found
true
▁oversized
▁angst
bine
▁1984.
▁nominal
▁cultivated
Ve
▁frontline
▁villains
▁snuck
▁Medium
▁disguised
cause
▁derivatives
ffe
▁Skin
▁addicts
shme
▁fiddle
▁monarchy
hitter
▁Pavilion
▁squeezing
▁Protesters
▁Snake
DT
▁encompasses
▁expands
▁Denny
né
gr
▁fri
▁counselling
cious
▁Aziz
nza
Girl
▁gust
▁confidently
▁shin
▁widen
▁1971,
▁ion
▁ideally
▁bursts
▁UV
▁Irwin
▁guise
▁Akin
▁trout
▁entrenched
▁Griffith
▁tweak
▁dismissing
▁spurt
hair
those
emon
▁VM
EK
▁nightly
▁Ame
▁endeavour
▁shampoo
INT
▁lodging
▁Kelsey
Kim
nish
▁Toro
▁Ley
ZA
▁Masa
▁Donaldson
▁124
▁seventy
▁3)
▁Crash
▁implication
Islam
▁hiked
▁approximate
▁swimmer
shëm
▁256
▁DW
angle
iku
▁compost
wig
▁tack
▁validate
meaning
▁implants
▁Pictured
▁salesman
mental
▁Santo
▁pesticides
▁caveat
.73
▁($4
▁sponge
▁KNOW
rot
▁11%
ubi
110
▁Soft
▁Highlights
▁flung
ría
▁grape
▁Anyways
▁perpetual
▁molecule
ahan
▁pans
▁Jab
▁Guerrero
▁parachute
▁resurgence
▁benign
▁complied
▁Patch
▁intolerance
▁coupons
▁Truman
▁breeds
▁parte
▁coil
▁firsthand
-31
▁worsened
▁Vil
▁Eid
mah
▁convened
▁Bac
▁Sadie
▁affiliates
▁1200
▁13%
▁contagious
▁marital
▁Peterborough
▁detain
▁manners
▁underdog
3.7
▁heavens
▁WC
▁Birds
▁secretive
friend
rama
tile
▁Railways
mato
▁flawless
▁doctorate
▁Borders
Los
▁Platinum
▁facilitating
▁prosecuting
▁TRUMP
▁parody
▁demeanor
▁handmade
vac
▁springs
▁Andersen
▁trickle
▁pleasantly
▁lurking
▁129
chenko
▁Marian
hora
▁inspires
stre
▁GOD
nese
▁listener
.69
▁curly
▁Calder
▁fluent
aji
▁portraying
▁hypocrisy
▁refining
▁cub
▁Sanjay
▁marquee
▁ledge
▁forcefully
▁Bacon
▁theoretically
▁Ruben
ANA
clean
▁Gut
WP
▁Lamp
▁VII
thinking
▁WAR
▁$44
ി
▁Midland
▁marginalized
▁questionnaire
▁surgeons
gler
▁Regulatory
▁ballpark
acle
RES
▁Councilman
▁fiancé
▁blackout
▁Sands
▁nun
▁esteem
bbed
▁Meek
▁Khu
ogo
▁nostalgic
▁rejoice
▁tumultuous
▁compromising
▁Presidency
▁Accountability
▁Dorsey
▁WT
▁Separately
▁Rent
ciones
▁Hus
gat
▁foi
▁crossings
Germain
-7)
fl
Mel
▁retirees
-2017
▁controversies
▁unjust
▁tart
▁Connection
▁Published
▁Blast
▁Levin
▁Ris
▁uptick
▁Carly
oci
▁grenade
▁mustard
gation
Press
▁offend
▁Drum
▁Covington
▁FRANCISCO
▁emphasizing
▁Dudley
▁shady
▁steroids
▁Cyclone
loaded
root
▁impoverished
▁brilliantly
▁outweigh
▁Demon
uter
lop
▁α
brush
▁disrupting
▁Zan
▁scissors
▁DID
ý
▁Crossing
▁theology
▁Musa
hear
▁Baird
▁Firstly
▁Cyril
.63
esco
▁DON
oire
▁disturb
▁Wolverines
▁Shire
▁meth
croft
cking
ndy
▁aura
▁License
loop
▁Sword
better
stay
.71
▁Founder
▁Birth
▁skid
▁Cub
▁41,
▁DUP
▁slider
▁Marxist
▁unilateral
▁2018)
▁Sap
▁Ely
flower
hack
▁Greitens
▁calves
▁Dividend
rani
▁factual
▁consciously
▁MAC
gno
died
/18
GN
▁mastered
Women
▁deliberations
Line
▁tread
weed
chet
▁negotiator
▁Hmmm
▁Vivian
▁Villanova
▁Ramadan
former
▁gy
▁Rein
▁Sputnik
▁(27
▁Nag
▁mantle
Note
▁distinctly
UB
▁Signal
▁Sponsor
ohet
add
ede
▁hysterical
▁thi
▁shedding
▁Might
▁Landing
▁livelihood
▁quieter
▁metre
▁Conversation
▁rhyme
sproportionately
Trans
▁Clerk
▁referencing
▁stemmed
▁ironically
phon
▁blasts
yx
▁broom
Sch
onte
▁takeaway
▁jihadists
▁Moo
▁Rox
▁Heller
▁placebo
▁Recording
▁Tanya
▁scares
▁RNA
▁unleash
▁decreases
▁prosper
▁Mahmoud
▁poignant
▁Yield
▁snail
▁constable
▁nurture
▁succumbed
▁Christy
▁Issue
join
▁Luca
▁trump
kumar
▁TW
▁Hubbard
▁repository
▁barracks
▁resurrection
▁Guinness
▁Favorite
byte
▁adjourned
▁affordability
▁null
▁PML
▁Howell
elman
▁tripped
hey
▁Somebody
▁Benton
▁Worse
▁___
▁Adventures
SW
ury
▁1973,
▁careless
fitting
▁surrounds
▁irritation
▁intersect
▁repetition
▁Trial
▁Fisheries
nak
▁Parts
RK
3.8
rito
▁rigs
▁formulation
▁differs
▁PL
itive
pies
▁congratulations
▁Psychology
▁utilization
▁futile
▁discontent
▁paramount
▁Shiva
▁facilitated
fr
▁traitor
eza
▁adorned
▁dal
▁Locke
▁Guys
▁depended
tick
▁Irene
▁mayoral
Cu
▁surpass
sworth
▁Adele
▁Sher
▁rhino
▁PJ
▁sling
▁Saskatoon
▁metabolism
▁blazing
▁Kes
▁grinning
▁appalling
▁grooming
▁Kana
▁repression
▁Madden
▁disbanded
▁3-4
joy
▁revisions
”?
▁usher
uploads
connected
confidence
▁regimes
ssian
gl
▁Tasmania
▁Equal
flat
▁Seed
▁Fitzpatrick
▁ostensibly
living
▁Winchester
▁Outlook
▁fulfillment
▁depleted
tuar
▁Insiders
▁7-5
▁eerie
▁whine
rata
mour
defined
▁motorway
▁(23
▁overdoses
▁thickness
▁cherished
0.0
▁Historically
▁Stat
lasting
grand
▁disparity
▁pragmatic
▁weaving
▁spacious
▁Turtle
▁admittedly
▁Definitely
▁Pray
▁Harlem
▁manned
▁Slim
▁Bronze
▁iceberg
:1
▁rover
▁3,500
▁Kristin
▁temps
▁1965,
▁vacations
gha
▁Pon
▁ascertain
▁cleric
▁clutching
▁wording
gru
▁Mikhail
▁Pulitzer
▁Scholarship
▁paving
usi
▁shuffle
Bank
▁fruition
▁silicon
1000
cool
▁Gad
▁CPI
ILL
▁snatch
▁google
▁Peach
▁Avalanche
▁McCartney
▁Pochettino
▁Reliance
▁schizophrenia
▁Supervisor
▁slug
▁ethanol
▁Paint
▁hustle
▁probing
▁sparkle
▁fooled
▁greedy
▁Anand
▁beau
▁1987.
▁fuelled
▁Kem
▁Hab
χ
▁giggling
▁alligator
▁Suicide
▁Omega
uous
▁federally
▁cultivate
▁spirited
▁Tracey
▁Responding
macon
▁ignores
▁openings
▁1899
▁equals
▁pounded
▁Cli
famous
elia
▁Dickinson
▁Gibraltar
▁Moroccan
▁guerrilla
▁knack
▁Ninja
▁reminders
▁spiked
▁Joanne
▁specializing
▁finite
▁duplicate
▁7.30
▁Whoever
▁banged
▁Alternatively
Beat
fix
▁herbal
tho
.57
ody
▁^
▁ageing
▁purity
ت
▁Pepsi
shell
▁advancements
▁detectors
ggs
vas
haired
▁->
▁[11]
uki
▁Jewel
▁prick
▁equip
Th
▁prostitutes
▁Dude
▁deprivation
▁Townsend
▁glamour
▁ADHD
▁Wrong
▁entrepreneurial
▁Lisbon
▁Zombie
▁dotted
pped
,000,000
▁cube
▁Lack
kara
▁simplify
▁1600
▁salty
▁$90
▁ushered
▁instruct
▁1985.
tik
▁compounded
trap
cs
▁disclosures
ß
▁untouched
▁Samaritan
▁Mauricio
▁goofy
▁Anchorage
▁Courier
▁ratified
quo
▁Gallup
▁scrum
▁Organic
▁Hue
▁Pulse
▁restraints
▁WM
▁motors
nio
bles
▁soar
▁Commissioners
▁Britt
▁burner
▁Warm
▁faults
▁tails
▁Tunnel
directed
▁Hannity
▁Shapiro
▁arraigned
▁Mozilla
▁rigged
Stop
▁separatist
▁Unified
▁postpone
▁portfolios
found
cash
▁fig
management
▁SV
▁Awesome
▁twentieth
▁honorable
▁Occupy
▁recharge
▁Moe
▁pap
▁Cay
Han
▁Vander
hane
▁Status
▁Sah
▁Eg
▁warranted
nton
/11
ussi
quel
▁tam
FD
Min
▁formations
▁Profile
▁1977,
▁Bangalore
▁Occasionally
▁camouflage
▁thrift
▁approvals
▁deterrent
▁Sevilla
▁wastewater
▁$1.8
▁intimidate
▁shines
▁Marg
▁Colony
rud
▁Bea
▁Lifetime
▁grapple
▁org
roid
▁stacks
8.00
▁needy
▁Demo
▁Airline
▁cooks
▁Unlimited
▁Ezra
▁chairperson
▁Jain
▁Treat
LES
▁contemplate
▁gardener
▁pct
▁Faye
▁Kari
criminal
▁YA
▁$15,000
▁distracting
poor
escent
▁repairing
▁BOSTON
▁Gymnastics
▁vulgar
▁Evolution
▁crocodile
▁Improvement
▁Offensive
rug
▁McCann
▁circuits
▁roommates
▁Recep
▁groan
iam
▁cigar
▁Hunger
counter
▁Directorate
▁powerless
▁Pound
▁Riot
▁timer
▁disrespectful
ò
▁Chesapeake
▁Winfrey
▁Applied
▁Tahoe
▁momentarily
Indian
▁Prasad
▁260
▁Tracking
▁Sou
▁circled
▁leftovers
▁licked
но
▁abdominal
▁robberies
▁Rotary
▁strand
▁pr
pus
▁pulp
▁Shake
▁groaned
▁Export
Dan
▁gl
▁330
9%
▁Isa
▁repertoire
▁guild
▁Potential
▁Hospice
▁Borussia
▁Armour
pens
lp
▁Fake
▁Analyst
▁Janice
▁127
▁pals
ometer
bbi
▁Examples
▁mashed
▁iz
Happy
▁Lud
hook
duct
crime
▁Kayla
▁paraphernalia
ī
hul
▁BREAKING
▁FROM
▁Midnight
▁Kul
▁ZTE
▁Parent
6.3
▁+1
▁whispering
throw
▁1896
▁Notably
▁hostages
▁behaving
▁Yar
▁fracking
▁motorbike
▁crumbling
Sc
mag
▁thou
▁periodic
Lab
▁piling
▁malfunction
▁Jed
▁hooks
▁litre
moon
sense
▁Missing
▁derailed
▁altering
▁ox
▁Greenwood
Google
▁JJ
▁Bridget
▁bon
▁syringe
▁Extension
▁Talbot
▁HI
▁trapping
▁rout
▁Polk
▁morph
▁Discover
▁harass
release
▁genetics
▁redshirt
▁HM
▁Yup
▁Halo
▁plaster
Despite
▁Aba
unci
Hello
▁Instant
grown
▁mandates
▁cliché
▁cadre
▁tumbling
▁complimentary
chie
▁frail
Au
▁airborne
▁overrun
▁Cod
▁legislator
▁Pace
▁Lex
ior
lix
Old
▁Northam
▁exp
▁outfield
▁familiarity
coach
▁Rudolph
▁brilliance
▁bouquet
▁inexperienced
▁dependency
▁parrot
aar
gang
▁siding
▁Julio
111
▁hires
▁clamp
▁Soldier
Fla
Ken
▁domestically
▁McGee
rage
▁magically
zhou
▁disorderly
product
por
▁br
lant
▁Illustrated
▁Reverend
▁informative
▁Harriet
▁Angelina
▁Huang
▁clenched
▁menus
eil
▁vile
▁prescribe
▁gigs
▁weakest
bber
▁gan
▁Oo
ATA
sai
▁Jur
▁Nicaragua
▁shields
priced
emo
▁partying
▁EM
▁juicy
▁testosterone
▁Kershaw
▁Bog
▁Tatum
▁summed
▁Motorola
▁Rift
▁apron
▁Darius
▁Colon
▁characterize
▁Teaching
▁Weir
isht
▁fost
▁Journalism
▁marina
▁KU
oids
Other
▁transitional
▁Taka
▁Term
▁backstop
▁Jarrett
▁breweries
▁Sacred
▁jerseys
▁Jurgen
▁Invitational
▁convertible
▁witty
▁trolley
▁Caption
limit
▁girlfriends
hub
ckle
▁buds
Figure
▁viewpoint
Bill
tak
в
▁1979.
▁jealousy
▁contended
▁Awareness
▁Labrador
▁Beyonce
▁Liquid
▁Chevron
▁budding
▁irregularities
▁Scene
▁Eduardo
▁reliant
▁hotline
▁graveyard
▁1893
▁pur
mol
▁migrate
rna
▁huddled
▁ARM
▁ul
▁André
▁Postal
▁Soldiers
▁fullback
fri
▁sparks
▁Zel
▁Majesty
PAC
▁menacing
▁inflict
▁unresponsive
▁Brave
▁risked
▁Galway
▁spearheaded
rro
▁deductions
▁shortest
▁pixel
brother
▁cured
▁Fate
▁$48
▁pavilion
▁pristine
▁ramifications
▁canopy
▁Drugs
tă
cic
▁Plum
▁bis
▁robes
▁plummeted
fic
▁culminated
rion
grass
▁Ages
▁Doe
▁revolves
rena
▁Mariah
▁transitioning
▁mutation
▁Crowd
▁paws
▁Gamble
▁theatres
▁torrent
▁Loyola
▁appreciative
▁chimney
▁Assuming
▁Peanut
▁Mean
▁pharma
▁Zurich
▁Darcy
toxic
▁Sca
▁omission
▁Freeland
▁transcription
▁Gators
▁Sergey
▁walker
▁Cesar
lina
▁Called
▁superpower
▁Carrier
▁defenceman
▁frown
▁Timberwolves
▁Lenovo
▁Interactive
▁paranormal
▁Hag
▁Cran
▁Kramer
▁Mutual
▁Crest
▁Basil
▁Yorkers
▁remix
▁nineteenth
▁roundabout
▁quell
▁ministerial
▁polo
▁Tao
isch
€
▁tonne
▁Andhra
▁AZ
pil
▁Apprentice
▁BlackBerry
▁Integrated
▁crippling
▁tragedies
▁Café
▁wield
▁expectancy
▁littered
eka
▁thirsty
gil
▁hardened
biggest
▁Roche
access
▁leveled
▁abs
▁comrades
.94
▁orchard
▁bonded
▁misunderstood
▁unicorn
▁Lincolnshire
▁orderly
▁appease
▁coke
▁exchanging
▁Cris
TX
ě
▁cookbook
▁Imam
▁exacerbated
▁fluctuations
▁WTO
▁dogged
▁lured
▁airfield
weak
▁ballad
▁hauling
▁fraught
▁HoldingsChannel
▁Adolf
▁Mansfield
▁Lukaku
▁Malibu
▁Azure
▁Lansing
▁$43
▁Pauline
moor
▁Rath
▁bedside
▁Stack
ί
▁labeling
▁bookings
▁guitars
▁Git
▁depiction
▁decoration
▁jihadist
▁Macau
model
▁Slovenia
▁implying
▁moniker
▁Phelps
gies
▁extraordinarily
▁conveniently
▁Crowley
▁Bray
▁MIL
VILLE
▁growl
▁Lankan
▁removes
▁£9
▁spawned
▁sighting
▁Patton
▁Marr
▁MG
United
OV
▁Ike
▁Dip
ëve
▁$47
▁Bethlehem
▁Kurdistan
▁ivory
▁Sturgeon
▁Kirsten
▁REAL
▁Mosque
▁redeem
▁disadvantaged
▁boon
breaker
▁Bundy
▁rebuke
▁countdown
▁Nagar
dium
▁abound
automatic
▁Guil
▁warehouses
▁PU
▁Aj
▁IPL
tima
wards
0.1
▁grunt
▁Choi
▁fantasies
▁versatility
▁Khal
▁Nou
▁Trace
▁Bold
7.6
▁likened
▁symbolize
▁immersed
▁wrecked
▁Fitz
ships
▁EMS
▁diversify
▁replaces
▁Slu
Three
▁ashore
▁gen
-90
▁psycho
▁blames
▁Vaughan
▁tedious
▁obligated
▁Battery
▁Eh
▁Granny
▁buckle
rek
▁Burk
▁Essentially
serve
▁groundwater
▁swoop
▁Ful
▁accommodations
▁ND
▁obsessive
above
Music
SY
▁Supplied
▁throttle
▁UNESCO
▁buffalo
▁impasse
▁Consulting
▁gritty
▁vehemently
▁dictated
▁apartheid
▁fleeting
▁adored
ه
▁clam
▁bode
▁scoreboard
▁plume
▁disruptions
▁poetic
▁adapting
▁Resident
▁Hawke
▁thugs
▁Buddhism
▁Vodafone
▁debacle
▁degradation
▁deterioration
▁Revival
▁Marseille
▁Gli
▁Taiwanese
▁dangling
weather
▁customization
▁Trev
$5
▁Thal
▁Plate
▁Kath
pressed
▁birthdays
▁Gaz
Pat
▁Peel
▁Nur
▁alloy
▁Playoff
Joe
▁1,300
▁Rolls
▁Sigma
tham
▁Goals
polis
▁calculating
why
▁immuno
▁[13]
▁oppressive
-4,
▁mater
▁Tales
Mor
▁shoreline
▁novice
▁lest
▁Cooke
▁Yugoslavia
▁fielded
bby
▁Bayer
▁1865
▁boasting
▁YMCA
▁intuition
▁Knowledge
▁jammed
▁nonpartisan
▁131
▁fasting
▁noticeably
Year
▁Martial
▁humane
▁statistic
▁SSD
▁regimen
OTC
▁Cary
▁1982.
religious
▁cupcakes
unga
▁worsening
RNA
▁SHA
▁cerebral
▁dazzling
▁valuations
▁anthology
▁Jesuit
▁circling
▁Storage
▁Speak
▁Random
▁detector
▁centrist
KA
▁Healthy
▁knocks
feet
aco
▁cleansing
▁makeover
▁Fay
▁4.1
▁Constant
▁fouled
▁в
▁stares
▁Slate
▁disgrace
▁Aria
Young
urb
▁Hasan
▁🙂
▁Annapolis
▁braking
▁Chun
▁unnatural
▁retrospect
▁Buffy
▁tendon
▁bedding
▁280
▁fingerprints
▁peach
abortion
2012
▁Shak
▁absorbing
▁HDR
▁Patti
▁Lola
▁denote
▁Witness
▁empirical
▁incompetent
▁swimsuit
chal
▁Cena
▁correspond
▁vaccinated
igi
gest
▁vu
▁moaned
sei
▁camper
took
support
வ
▁Rahman
▁Saudis
▁shiver
▁Surveillance
▁charcoal
▁leopard
▁shrunk
▁Ernie
▁reproduced
created
▁sunscreen
bush
▁aids
▁fanatic
▁discern
hed
▁Romance
▁Spears
▁MSU
▁THC
▁attained
▁Returning
▁cooker
▁TDs
▁Entrepreneur
▁roofs
▁vouchers
▁ascent
▁Maher
6.8
▁Fahrenheit
▁harrowing
▁LORD
▁patted
▁Dixie
▁grumpy
▁judgments
▁hopping
▁Ware
▁bitterness
Dar
▁worsen
▁Gir
▁summon
▁scripted
▁legion
▁Suit
▁Rank
▁Karan
major
▁counselors
▁Malay
▁refunds
▁Nad
_1
▁Educational
▁Carlisle
▁embroiled
▁metabolic
▁Intermediate
▁Sabrina
▁Harbaugh
dina
”;
▁Seventh
▁Gai
▁marred
▁lockdown
▁$300,000
▁revered
▁Fairfield
▁Ginger
▁straightened
shift
▁ç
▁brag
▁compass
▁Dodger
cid
▁loot
▁Account
▁Haryana
▁unintended
oul
▁Gemma
▁Subsequently
▁passions
kul
▁Kenney
zzle
▁HER
cies
According
▁Flor
0.8
rb
▁defiant
vocation
▁rambling
▁sectarian
▁Bharatiya
▁thicker
ISE
VP
▁cringe
▁205
▁airspace
▁Rav
▁Aiden
▁Bergen
OF
▁17%
▁banter
▁flushed
▁Amen
shoot
▁Santana
▁Raqqa
▁manipulating
▁unsettling
▁presiding
▁shredded
▁Achievement
▁populous
▁ambassadors
Given
logist
thing
BER
-34
▁Brewery
▁miner
German
▁Thatcher
▁matchups
rv
NH
activity
-3,
▁paperback
▁copying
▁Approximately
▁Jefferies
▁curry
▁baptized
▁filtering
▁cape
▁echoing
ticket
▁Lawn
▁exec
▁mule
▁della
▁Lai
▁sirens
uth
otta
▁redesigned
RED
▁Distribution
▁Affleck
▁composure
▁evasion
▁curfew
▁Adidas
▁horrendous
[...]
